{
  "version": "1.0",
  "truncation": null,
  "padding": null,
  "added_tokens": [
    {
      "id": 0,
      "content": "<|bos|>",
      "single_word": false,
      "lstrip": false,
      "rstrip": false,
      "normalized": false,
      "special": true
    },
    {
      "id": 1,
      "content": "<|eos|>",
      "single_word": false,
      "lstrip": false,
      "rstrip": false,
      "normalized": false,
      "special": true
    },
    {
      "id": 2,
      "content": "<|pad|>",
      "single_word": false,
      "lstrip": false,
      "rstrip": false,
      "normalized": false,
      "special": true
    },
    {
      "id": 3,
      "content": "<|unk|>",
      "single_word": false,
      "lstrip": false,
      "rstrip": false,
      "normalized": false,
      "special": true
    },
    {
      "id": 4,
      "content": "<|sep|>",
      "single_word": false,
      "lstrip": false,
      "rstrip": false,
      "normalized": false,
      "special": true
    },
    {
      "id": 5,
      "content": "<|assistant|>",
      "single_word": false,
      "lstrip": false,
      "rstrip": false,
      "normalized": false,
      "special": true
    },
    {
      "id": 6,
      "content": "<|user|>",
      "single_word": false,
      "lstrip": false,
      "rstrip": false,
      "normalized": false,
      "special": true
    },
    {
      "id": 7,
      "content": "<|system|>",
      "single_word": false,
      "lstrip": false,
      "rstrip": false,
      "normalized": false,
      "special": true
    }
  ],
  "normalizer": null,
  "pre_tokenizer": null,
  "post_processor": null,
  "decoder": null,
  "model": {
    "type": "BPE",
    "dropout": null,
    "unk_token": "<unk>",
    "continuing_subword_prefix": null,
    "end_of_word_suffix": null,
    "fuse_unk": false,
    "byte_fallback": false,
    "ignore_merges": false,
    "vocab": {
      "<|bos|>": 0,
      "<|eos|>": 1,
      "<|pad|>": 2,
      "<|unk|>": 3,
      "<|sep|>": 4,
      "<|assistant|>": 5,
      "<|user|>": 6,
      "<|system|>": 7,
      "\n": 8,
      " ": 9,
      "!": 10,
      "\"": 11,
      "#": 12,
      "$": 13,
      "%": 14,
      "&": 15,
      "'": 16,
      "(": 17,
      ")": 18,
      "*": 19,
      "+": 20,
      ",": 21,
      "-": 22,
      ".": 23,
      "/": 24,
      "0": 25,
      "1": 26,
      "2": 27,
      "3": 28,
      "4": 29,
      "5": 30,
      "6": 31,
      "7": 32,
      "8": 33,
      "9": 34,
      ":": 35,
      ";": 36,
      "<": 37,
      "=": 38,
      ">": 39,
      "?": 40,
      "@": 41,
      "A": 42,
      "B": 43,
      "C": 44,
      "D": 45,
      "E": 46,
      "F": 47,
      "G": 48,
      "H": 49,
      "I": 50,
      "J": 51,
      "K": 52,
      "L": 53,
      "M": 54,
      "N": 55,
      "O": 56,
      "P": 57,
      "Q": 58,
      "R": 59,
      "S": 60,
      "T": 61,
      "U": 62,
      "V": 63,
      "W": 64,
      "X": 65,
      "Y": 66,
      "Z": 67,
      "[": 68,
      "\\": 69,
      "]": 70,
      "^": 71,
      "_": 72,
      "`": 73,
      "a": 74,
      "b": 75,
      "c": 76,
      "d": 77,
      "e": 78,
      "f": 79,
      "g": 80,
      "h": 81,
      "i": 82,
      "j": 83,
      "k": 84,
      "l": 85,
      "m": 86,
      "n": 87,
      "o": 88,
      "p": 89,
      "q": 90,
      "r": 91,
      "s": 92,
      "t": 93,
      "u": 94,
      "v": 95,
      "w": 96,
      "x": 97,
      "y": 98,
      "z": 99,
      "{": 100,
      "|": 101,
      "}": 102,
      "~": 103,
      "¡": 104,
      "¢": 105,
      "£": 106,
      "¤": 107,
      "¥": 108,
      "¦": 109,
      "§": 110,
      "¨": 111,
      "©": 112,
      "ª": 113,
      "«": 114,
      "¬": 115,
      "®": 116,
      "¯": 117,
      "°": 118,
      "±": 119,
      "²": 120,
      "³": 121,
      "´": 122,
      "µ": 123,
      "¶": 124,
      "·": 125,
      "¸": 126,
      "¹": 127,
      "º": 128,
      "»": 129,
      "¼": 130,
      "½": 131,
      "¾": 132,
      "¿": 133,
      "À": 134,
      "Á": 135,
      "Â": 136,
      "Ã": 137,
      "Ä": 138,
      "Å": 139,
      "Æ": 140,
      "Ç": 141,
      "È": 142,
      "É": 143,
      "Ê": 144,
      "Ë": 145,
      "Ì": 146,
      "Í": 147,
      "Î": 148,
      "Ï": 149,
      "Ð": 150,
      "Ñ": 151,
      "Ò": 152,
      "Ó": 153,
      "Ô": 154,
      "Õ": 155,
      "Ö": 156,
      "×": 157,
      "Ø": 158,
      "Ù": 159,
      "Ú": 160,
      "Û": 161,
      "Ü": 162,
      "Ý": 163,
      "Þ": 164,
      "ß": 165,
      "à": 166,
      "á": 167,
      "â": 168,
      "ã": 169,
      "ä": 170,
      "å": 171,
      "æ": 172,
      "ç": 173,
      "è": 174,
      "é": 175,
      "ê": 176,
      "ë": 177,
      "ì": 178,
      "í": 179,
      "î": 180,
      "ï": 181,
      "ð": 182,
      "ñ": 183,
      "ò": 184,
      "ó": 185,
      "ô": 186,
      "õ": 187,
      "ö": 188,
      "÷": 189,
      "ø": 190,
      "ù": 191,
      "ú": 192,
      "û": 193,
      "ü": 194,
      "ý": 195,
      "þ": 196,
      "ÿ": 197,
      "Ā": 198,
      "ā": 199,
      "Ă": 200,
      "ă": 201,
      "Ą": 202,
      "ą": 203,
      "Ć": 204,
      "ć": 205,
      "Ĉ": 206,
      "ĉ": 207,
      "Ċ": 208,
      "ċ": 209,
      "Č": 210,
      "č": 211,
      "Ď": 212,
      "ď": 213,
      "Đ": 214,
      "đ": 215,
      "Ē": 216,
      "ē": 217,
      "Ĕ": 218,
      "ĕ": 219,
      "Ė": 220,
      "ė": 221,
      "Ę": 222,
      "ę": 223,
      "Ě": 224,
      "ě": 225,
      "Ĝ": 226,
      "ĝ": 227,
      "Ğ": 228,
      "ğ": 229,
      "Ġ": 230,
      "ġ": 231,
      "Ģ": 232,
      "ģ": 233,
      "Ĥ": 234,
      "ĥ": 235,
      "Ħ": 236,
      "ħ": 237,
      "Ĩ": 238,
      "ĩ": 239,
      "Ī": 240,
      "ī": 241,
      "Ĭ": 242,
      "ĭ": 243,
      "Į": 244,
      "į": 245,
      "İ": 246,
      "ı": 247,
      "Ĳ": 248,
      "ĳ": 249,
      "Ĵ": 250,
      "ĵ": 251,
      "Ķ": 252,
      "ķ": 253,
      "ĸ": 254,
      "Ĺ": 255,
      "ĺ": 256,
      "Ļ": 257,
      "ļ": 258,
      "Ľ": 259,
      "ľ": 260,
      "Ŀ": 261,
      "ŀ": 262,
      "Ł": 263,
      "ł": 264,
      "Ń": 265,
      "–": 266,
      "—": 267,
      "‘": 268,
      "’": 269,
      "“": 270,
      "”": 271,
      "。": 272,
      "e ": 273,
      "t ": 274,
      " '": 275,
      "s ": 276,
      "th": 277,
      "ou": 278,
      "in": 279,
      "d ": 280,
      ". ": 281,
      "y ": 282,
      "o ": 283,
      " ' ": 284,
      "er": 285,
      "an": 286,
      ", ": 287,
      " '\n": 288,
      "you": 289,
      "on": 290,
      "I ": 291,
      "or": 292,
      "you ": 293,
      " '\n ' ": 294,
      "ll": 295,
      "ha": 296,
      "the ": 297,
      "g ": 298,
      "en": 299,
      " \"": 300,
      "to ": 301,
      "ing ": 302,
      "ar": 303,
      "a ": 304,
      "re": 305,
      "ll ": 306,
      " \" ": 307,
      "er ": 308,
      "m ": 309,
      "k ": 310,
      "is ": 311,
      ". '\n ' ": 312,
      "ve ": 313,
      ". \"": 314,
      "ow": 315,
      "es ": 316,
      "me ": 317,
      "f ": 318,
      "at ": 319,
      "ti": 320,
      "ed ": 321,
      "on ": 322,
      "or ": 323,
      "it ": 324,
      "h ": 325,
      "and ": 326,
      "ow ": 327,
      "an ": 328,
      "li": 329,
      "r ": 330,
      ". \"\n": 331,
      "in ": 332,
      "oo": 333,
      "? '\n ' ": 334,
      "st ": 335,
      "ea": 336,
      "st": 337,
      "'s ": 338,
      "se ": 339,
      "’ ": 340,
      "of ": 341,
      " '\n \" ": 342,
      "en ": 343,
      "wi": 344,
      "ri": 345,
      "for ": 346,
      "ke ": 347,
      "l ": 348,
      "ay ": 349,
      "Th": 350,
      "have ": 351,
      "hat ": 352,
      "ere ": 353,
      "ld ": 354,
      "at": 355,
      ". '": 356,
      "that ": 357,
      "et ": 358,
      "ic": 359,
      "om": 360,
      "I'": 361,
      "['": 362,
      "pl": 363,
      "t's ": 364,
      "are ": 365,
      "be": 366,
      "ac": 367,
      ". I ": 368,
      "p ": 369,
      "gh": 370,
      "ould ": 371,
      "th ": 372,
      "ot ": 373,
      "be ": 374,
      "ne": 375,
      "ro": 376,
      ". \"\n ' ": 377,
      "re ": 378,
      "ab": 379,
      "'t ": 380,
      "se": 381,
      "do ": 382,
      "si": 383,
      "sh": 384,
      "su": 385,
      "your ": 386,
      "ut ": 387,
      "out ": 388,
      "ght ": 389,
      "ta": 390,
      ". \"\n \" ": 391,
      "ver": 392,
      "ly ": 393,
      "You": 394,
      "di": 395,
      ". ']": 396,
      "as ": 397,
      "can ": 398,
      "le ": 399,
      "now ": 400,
      "all": 401,
      "n ": 402,
      "ome ": 403,
      " \"\n": 404,
      ". '\n \" ": 405,
      "ma": 406,
      "ell ": 407,
      "the": 408,
      "ch": 409,
      "my ": 410,
      "ch ": 411,
      ", I ": 412,
      "like ": 413,
      "we ": 414,
      "ood ": 415,
      "What ": 416,
      "? '\n \" ": 417,
      "thin": 418,
      "le": 419,
      "with ": 420,
      "ent ": 421,
      "! ": 422,
      "to": 423,
      "ust ": 424,
      "? \"\n": 425,
      "You ": 426,
      "one ": 427,
      "Yes ": 428,
      "wh": 429,
      "al": 430,
      "this ": 431,
      "ce ": 432,
      "it": 433,
      "ra": 434,
      "so ": 435,
      "ally ": 436,
      "? ": 437,
      "tion ": 438,
      "es": 439,
      "about ": 440,
      "el": 441,
      "ter ": 442,
      "all ": 443,
      "I'm ": 444,
      "ec": 445,
      "will ": 446,
      "ry ": 447,
      "ter": 448,
      "think ": 449,
      "know ": 450,
      "day ": 451,
      "ag": 452,
      "as": 453,
      ". Th": 454,
      "wor": 455,
      "any ": 456,
      ". I": 457,
      "com": 458,
      "ant ": 459,
      "lo": 460,
      "un": 461,
      "thing ": 462,
      "ex": 463,
      "’ s ": 464,
      "me": 465,
      ". W": 466,
      "al ": 467,
      "get ": 468,
      "oun": 469,
      "ts ": 470,
      "? '": 471,
      "ear": 472,
      "go ": 473,
      "but ": 474,
      "for": 475,
      "ay": 476,
      "king ": 477,
      "not ": 478,
      "very ": 479,
      "ir": 480,
      "sp": 481,
      "How ": 482,
      "ee": 483,
      "ds ": 484,
      "ther ": 485,
      ". \"]": 486,
      "was ": 487,
      "there ": 488,
      "pp": 489,
      "on't ": 490,
      "hat's ": 491,
      "mu": 492,
      "h , ": 493,
      "? ' ' ": 494,
      ". ' ' ": 495,
      "here ": 496,
      "la": 497,
      "mo": 498,
      "w ": 499,
      ", but ": 500,
      "just ": 501,
      "bu": 502,
      "our ": 503,
      "mor": 504,
      "pro": 505,
      "what ": 506,
      "up ": 507,
      "’ t ": 508,
      "de": 509,
      "good ": 510,
      "ver ": 511,
      "loo": 512,
      "oing ": 513,
      "right ": 514,
      "do you ": 515,
      "hi": 516,
      "he ": 517,
      "ks ": 518,
      "af": 519,
      "in the ": 520,
      "ease ": 521,
      "ad": 522,
      "am ": 523,
      "ank ": 524,
      "time ": 525,
      "qu": 526,
      "would ": 527,
      "[\"": 528,
      "ice ": 529,
      "fin": 530,
      "? \"\n \" ": 531,
      "vi": 532,
      "ff": 533,
      "tt": 534,
      "mi": 535,
      "some ": 536,
      "co": 537,
      "really ": 538,
      "po": 539,
      "ed to ": 540,
      "ca": 541,
      "ur": 542,
      "Do ": 543,
      "want ": 544,
      "see ": 545,
      "But ": 546,
      "ey ": 547,
      "don't ": 548,
      ", and ": 549,
      "Well ": 550,
      "sa": 551,
      ". A": 552,
      "par": 553,
      "Do you ": 554,
      "take ": 555,
      "much ": 556,
      "Yes , ": 557,
      "too ": 558,
      "fi": 559,
      "going ": 560,
      ". '\n ' I ": 561,
      "No ": 562,
      "n't ": 563,
      "fu": 564,
      "te": 565,
      "con": 566,
      "id ": 567,
      "? '\n ' I ": 568,
      "rom ": 569,
      "? \"\n ' ": 570,
      "ate ": 571,
      "do": 572,
      "from ": 573,
      "per": 574,
      "should ": 575,
      "ank you ": 576,
      "if ": 577,
      "tr": 578,
      "ome": 579,
      "they ": 580,
      "ty ": 581,
      "comp": 582,
      "It ": 583,
      "end ": 584,
      "use ": 585,
      "I'll ": 586,
      "ho": 587,
      "more ": 588,
      "min": 589,
      "pre": 590,
      "0 ": 591,
      ". H": 592,
      "have a ": 593,
      "ple ": 594,
      "of the ": 595,
      "tw": 596,
      "been ": 597,
      "our": 598,
      "de ": 599,
      "gu": 600,
      "ment ": 601,
      "Oh , ": 602,
      "way ": 603,
      "please ": 604,
      "come ": 605,
      "hel": 606,
      "ss ": 607,
      "them ": 608,
      "That's ": 609,
      "mb": 610,
      ". S": 611,
      "ays ": 612,
      "pe": 613,
      "’ m ": 614,
      "jo": 615,
      "ge ": 616,
      "how ": 617,
      "reat ": 618,
      "car": 619,
      "to the ": 620,
      "fa": 621,
      ". You ": 622,
      "tion": 623,
      "That ": 624,
      "got ": 625,
      "orry ": 626,
      "sure ": 627,
      "'re ": 628,
      "Wh": 629,
      "ong ": 630,
      "like to ": 631,
      "bo": 632,
      "no": 633,
      "ci": 634,
      "Well , ": 635,
      " , ": 636,
      "gi": 637,
      "make ": 638,
      ". It ": 639,
      "ge": 640,
      "The ": 641,
      "\" ": 642,
      "have to ": 643,
      "ack ": 644,
      "want to ": 645,
      "ight ": 646,
      "some": 647,
      "ree ": 648,
      "ure ": 649,
      "own ": 650,
      "work ": 651,
      "help ": 652,
      "ything ": 653,
      "du": 654,
      "gs ": 655,
      "ld": 656,
      "nd ": 657,
      "look ": 658,
      "can": 659,
      "ople ": 660,
      " ' \" ": 661,
      "other ": 662,
      "ers ": 663,
      "lu": 664,
      "sh ": 665,
      "Ch": 666,
      "it's ": 667,
      "has ": 668,
      "able ": 669,
      "tic": 670,
      "on the ": 671,
      "ear ": 672,
      "ning ": 673,
      "ting ": 674,
      "Can ": 675,
      "two ": 676,
      "! '\n ' ": 677,
      "e's ": 678,
      "ad ": 679,
      "It's ": 680,
      "by ": 681,
      "wee": 682,
      "people ": 683,
      "we": 684,
      "Thank you ": 685,
      "ir ": 686,
      "tter ": 687,
      "ess ": 688,
      "him ": 689,
      "bi": 690,
      "mp": 691,
      ". M": 692,
      ". But ": 693,
      "on ’ t ": 694,
      "going to ": 695,
      "te ": 696,
      "a l": 697,
      "are you ": 698,
      "ould you ": 699,
      "did ": 700,
      "prob": 701,
      "great ": 702,
      "inter": 703,
      "['H": 704,
      "new ": 705,
      "when ": 706,
      "..": 707,
      "ce": 708,
      "gh ": 709,
      "mon": 710,
      "ine ": 711,
      "I've ": 712,
      "na": 713,
      "well ": 714,
      "der": 715,
      "est": 716,
      "her ": 717,
      "pri": 718,
      "so": 719,
      "age ": 720,
      "'ll ": 721,
      ". What ": 722,
      ". We ": 723,
      "sorry ": 724,
      "OK": 725,
      "off": 726,
      "ser": 727,
      "anks ": 728,
      "b ": 729,
      "ding ": 730,
      "ance ": 731,
      "at the ": 732,
      "need ": 733,
      "mber ": 734,
      "ation ": 735,
      "sin": 736,
      "wa": 737,
      "wat": 738,
      "roo": 739,
      "tra": 740,
      "us ": 741,
      "ru": 742,
      "tell ": 743,
      ", you ": 744,
      "ven": 745,
      ". '\n ' What ": 746,
      "ful ": 747,
      "back ": 748,
      "der ": 749,
      "pa": 750,
      "can't ": 751,
      "ms ": 752,
      "ound ": 753,
      "Yea": 754,
      "har": 755,
      "ook ": 756,
      "better ": 757,
      "ave ": 758,
      "cour": 759,
      "ew ": 760,
      ", th": 761,
      ", please ": 762,
      "is the ": 763,
      ". \" ' ": 764,
      "for you ": 765,
      "did": 766,
      "coun": 767,
      "ous ": 768,
      "tions ": 769,
      "fri": 770,
      "pe ": 771,
      "ar ": 772,
      "ic ": 773,
      "ite ": 774,
      "could ": 775,
      "ell": 776,
      "for the ": 777,
      "Chin": 778,
      "kin": 779,
      "no ": 780,
      "had ": 781,
      "read": 782,
      "eci": 783,
      "tu": 784,
      ". I'm ": 785,
      "you are ": 786,
      "a b": 787,
      "? '\n ' Yes ": 788,
      "proble": 789,
      "Good ": 790,
      "many ": 791,
      "ven ": 792,
      "only ": 793,
      "ary ": 794,
      ". The ": 795,
      "d of ": 796,
      "happ": 797,
      "br": 798,
      "ble ": 799,
      "lf ": 800,
      ", M": 801,
      "for a ": 802,
      "ked ": 803,
      "ted ": 804,
      "ving ": 805,
      "ents ": 806,
      "need to ": 807,
      "company ": 808,
      "fir": 809,
      "also ": 810,
      "will be ": 811,
      ". It's ": 812,
      "cu": 813,
      "last ": 814,
      "most ": 815,
      "! '": 816,
      "try ": 817,
      "were ": 818,
      "sir ": 819,
      "course ": 820,
      "over ": 821,
      "ough ": 822,
      "’ ll ": 823,
      "ain ": 824,
      ". L": 825,
      "is a ": 826,
      "something ": 827,
      "Is ": 828,
      "lea": 829,
      "mar": 830,
      ". '\n ' A": 831,
      "ace ": 832,
      "fore ": 833,
      "job ": 834,
      "ki": 835,
      "must ": 836,
      "than ": 837,
      "I don't ": 838,
      "she ": 839,
      "food ": 840,
      "is": 841,
      "mes ": 842,
      ". I'll ": 843,
      "lly ": 844,
      "find ": 845,
      "give ": 846,
      "ence ": 847,
      "before ": 848,
      "chec": 849,
      "! I ": 850,
      "ounds ": 851,
      "ese ": 852,
      ", the ": 853,
      "['I ": 854,
      "today ": 855,
      "a lot ": 856,
      "room ": 857,
      "sti": 858,
      "red ": 859,
      ". '\n ' W": 860,
      "Sure ": 861,
      "anything ": 862,
      "star": 863,
      "problem ": 864,
      "? ' \" ": 865,
      "of": 866,
      "nex": 867,
      "ttle ": 868,
      ". And ": 869,
      "minu": 870,
      "Why ": 871,
      "ready ": 872,
      "app": 873,
      "down ": 874,
      "hea": 875,
      "nice ": 876,
      "et me ": 877,
      "next ": 878,
      "il": 879,
      "ve": 880,
      ". How ": 881,
      "ort ": 882,
      "cre": 883,
      "kee": 884,
      "say ": 885,
      "tri": 886,
      "us": 887,
      "to be ": 888,
      "OK ": 889,
      "clo": 890,
      "ever": 891,
      "then ": 892,
      "I can ": 893,
      "orr": 894,
      "I'd ": 895,
      "first ": 896,
      "don ’ t ": 897,
      "and": 898,
      "in a ": 899,
      "ga": 900,
      "self ": 901,
      "help you ": 902,
      "still ": 903,
      "stor": 904,
      "at's ": 905,
      "where ": 906,
      "00 ": 907,
      "Ve ": 908,
      "sho": 909,
      "chan": 910,
      "didn't ": 911,
      "ello ": 912,
      "! \"\n": 913,
      "call ": 914,
      "stu": 915,
      "re you ": 916,
      "things ": 917,
      "ess": 918,
      "exp": 919,
      "after ": 920,
      "his ": 921,
      "ng": 922,
      "I have ": 923,
      "you can ": 924,
      "little ": 925,
      "love ": 926,
      "cause ": 927,
      "My ": 928,
      "cor": 929,
      "lease ": 930,
      "tly ": 931,
      "ways ": 932,
      ". Do you ": 933,
      "rea": 934,
      ". '\n ' You ": 935,
      "it is ": 936,
      "never ": 937,
      "morning ": 938,
      "office ": 939,
      "days ": 940,
      "ei": 941,
      "hou": 942,
      "home ": 943,
      "nu": 944,
      "a good ": 945,
      "? '\n ' Yes , ": 946,
      "meet ": 947,
      "serv": 948,
      "Oh ": 949,
      "i ": 950,
      "long ": 951,
      "ose ": 952,
      "ph": 953,
      "son ": 954,
      "ying ": 955,
      "This ": 956,
      "best ": 957,
      "again ": 958,
      "ck ": 959,
      "est ": 960,
      "les ": 961,
      "yes ": 962,
      ", sir ": 963,
      "see": 964,
      "n ’ t ": 965,
      "always ": 966,
      ". They ": 967,
      "if you ": 968,
      "ave you ": 969,
      "Chinese ": 970,
      "Not ": 971,
      "Please ": 972,
      "tom": 973,
      "ought ": 974,
      "ould": 975,
      "I think ": 976,
      ". '\n ' How ": 977,
      "’ Ve ": 978,
      "tal": 979,
      "raid ": 980,
      "afraid ": 981,
      ". He ": 982,
      "did you ": 983,
      "! ']": 984,
      "We ": 985,
      "ich ": 986,
      "because ": 987,
      ". Wh": 988,
      "kind of ": 989,
      "orrow ": 990,
      "Just ": 991,
      "lat": 992,
      "ses ": 993,
      "tment ": 994,
      ", we ": 995,
      "ick ": 996,
      "tell me ": 997,
      "$ ": 998,
      "Ex": 999,
      "pu": 1000,
      "ort": 1001,
      "ay I ": 1002,
      "diff": 1003,
      "mean ": 1004,
      "looking ": 1005,
      "fee": 1006,
      "ide": 1007,
      "las": 1008,
      "tes ": 1009,
      "won": 1010,
      "act ": 1011,
      "their ": 1012,
      "Can you ": 1013,
      "week ": 1014,
      "name ": 1015,
      "check ": 1016,
      "? \"": 1017,
      "au": 1018,
      "pay ": 1019,
      "ran": 1020,
      "ties ": 1021,
      "ect ": 1022,
      "tting ": 1023,
      "Eng": 1024,
      "dy ": 1025,
      "ket ": 1026,
      "sy ": 1027,
      "year": 1028,
      "ze ": 1029,
      "that's ": 1030,
      ". C": 1031,
      ", so ": 1032,
      "I am ": 1033,
      "ed in ": 1034,
      "lear": 1035,
      "buy ": 1036,
      "et's ": 1037,
      "three ": 1038,
      "['What ": 1039,
      "place ": 1040,
      "who ": 1041,
      "interest": 1042,
      "idea ": 1043,
      ". ' \" ": 1044,
      "ee ": 1045,
      "gg": 1046,
      "op": 1047,
      "ten": 1048,
      "year ": 1049,
      "ere's ": 1050,
      "rec": 1051,
      "sta": 1052,
      "’ re ": 1053,
      "? I ": 1054,
      "aybe ": 1055,
      "watch ": 1056,
      "keep ": 1057,
      "number ": 1058,
      "tomorrow ": 1059,
      "ely ": 1060,
      "ever ": 1061,
      "man ": 1062,
      "pr": 1063,
      "ssi": 1064,
      ". '\n ' H": 1065,
      "can I ": 1066,
      "ity ": 1067,
      "movi": 1068,
      "feel ": 1069,
      "gr": 1070,
      "imp": 1071,
      "mat": 1072,
      "pi": 1073,
      "put ": 1074,
      "x ": 1075,
      "plan": 1076,
      "made ": 1077,
      "else ": 1078,
      "ters ": 1079,
      "ask ": 1080,
      ", but I ": 1081,
      "Can I ": 1082,
      "siness ": 1083,
      "wait ": 1084,
      "What's ": 1085,
      "eat ": 1086,
      "ke": 1087,
      "ken ": 1088,
      "per ": 1089,
      "usu": 1090,
      "war": 1091,
      "lish ": 1092,
      "Thanks ": 1093,
      "might ": 1094,
      "same ": 1095,
      "mind ": 1096,
      "price ": 1097,
      "If ": 1098,
      "So ": 1099,
      "cat": 1100,
      "ded ": 1101,
      "go": 1102,
      "gn ": 1103,
      "you're ": 1104,
      "to get ": 1105,
      "a f": 1106,
      "lie": 1107,
      "ool ": 1108,
      "each ": 1109,
      "supp": 1110,
      "duc": 1111,
      "'ve ": 1112,
      "Did ": 1113,
      "bad ": 1114,
      "clas": 1115,
      "even ": 1116,
      "il ": 1117,
      "ner ": 1118,
      "sha": 1119,
      "ten ": 1120,
      "ue ": 1121,
      ". B": 1122,
      "times ": 1123,
      "such ": 1124,
      "these ": 1125,
      "spea": 1126,
      "would be ": 1127,
      "hope ": 1128,
      "doing ": 1129,
      "fe ": 1130,
      "gra": 1131,
      "mer": 1132,
      "night ": 1133,
      "ps ": 1134,
      "sing ": 1135,
      "sounds ": 1136,
      ". O": 1137,
      "for me ": 1138,
      ". I think ": 1139,
      "sur": 1140,
      "dis": 1141,
      "about the ": 1142,
      "Yeah ": 1143,
      "Yeah , ": 1144,
      "A ": 1145,
      "ali": 1146,
      "call": 1147,
      "wri": 1148,
      "inv": 1149,
      "d to ": 1150,
      "You're ": 1151,
      "business ": 1152,
      "? '\n ' Yes , I ": 1153,
      "English ": 1154,
      "Jo": 1155,
      "cuse ": 1156,
      "ju": 1157,
      "ni": 1158,
      "tur": 1159,
      "enjo": 1160,
      ". \"\n ' I ": 1161,
      "with you ": 1162,
      "all the ": 1163,
      "after": 1164,
      "tually ": 1165,
      "'d ": 1166,
      "Now ": 1167,
      "ft ": 1168,
      "late ": 1169,
      ". '\n ' That ": 1170,
      "that you ": 1171,
      "with the ": 1172,
      "I'm sorry ": 1173,
      "member ": 1174,
      "quite ": 1175,
      "noon ": 1176,
      "change ": 1177,
      "years ": 1178,
      "Don't ": 1179,
      "hear": 1180,
      "ves ": 1181,
      "win": 1182,
      "any": 1183,
      "I ’ m ": 1184,
      "ors ": 1185,
      "ends ": 1186,
      "to do ": 1187,
      "light ": 1188,
      "new": 1189,
      "tain": 1190,
      "would you ": 1191,
      "said ": 1192,
      "No , ": 1193,
      "import": 1194,
      "din": 1195,
      "im": 1196,
      "pas": 1197,
      "sit ": 1198,
      "set ": 1199,
      "sch": 1200,
      "ty": 1201,
      "table ": 1202,
      "another ": 1203,
      "ars ": 1204,
      "f course ": 1205,
      "it ’ s ": 1206,
      ". \"\n ' What ": 1207,
      "we can ": 1208,
      "why ": 1209,
      "do you think ": 1210,
      "does ": 1211,
      "important ": 1212,
      "ies ": 1213,
      "ild": 1214,
      "kay ": 1215,
      "line ": 1216,
      "man": 1217,
      "sed ": 1218,
      "yet ": 1219,
      "around ": 1220,
      "go to ": 1221,
      "And ": 1222,
      "He ": 1223,
      "brea": 1224,
      "dre": 1225,
      "ey": 1226,
      "kes ": 1227,
      "ments ": 1228,
      "sal": 1229,
      "your": 1230,
      "order ": 1231,
      ". '\n ' It ": 1232,
      ". '\n ' Thank you ": 1233,
      "and the ": 1234,
      "['How ": 1235,
      "its ": 1236,
      "looks ": 1237,
      "doll": 1238,
      "ours ": 1239,
      "house ": 1240,
      "lieve ": 1241,
      "cuse me ": 1242,
      "ces ": 1243,
      "dr": 1244,
      "dri": 1245,
      "ile ": 1246,
      "mm": 1247,
      "rong ": 1248,
      "a little ": 1249,
      "eal ": 1250,
      ". '\n \" That's ": 1251,
      "iting ": 1252,
      ". This ": 1253,
      "very much ": 1254,
      "fine ": 1255,
      "Well , I ": 1256,
      "compu": 1257,
      "big ": 1258,
      "['Hello ": 1259,
      "money ": 1260,
      "off ": 1261,
      "ouldn't ": 1262,
      "differ": 1263,
      "Did you ": 1264,
      "5 ": 1265,
      "pt ": 1266,
      "ton": 1267,
      "ensi": 1268,
      ". '\n ' Do you ": 1269,
      ". \" \" ": 1270,
      "’ d ": 1271,
      ". I ’ m ": 1272,
      "tty ": 1273,
      "peri": 1274,
      "week": 1275,
      "minutes ": 1276,
      "afternoon ": 1277,
      "Rea": 1278,
      "Sorry ": 1279,
      "To": 1280,
      "dding ": 1281,
      "deci": 1282,
      "the re": 1283,
      "to see ": 1284,
      "and I ": 1285,
      "stand ": 1286,
      "stay ": 1287,
      "already ": 1288,
      "working ": 1289,
      "start ": 1290,
      "phone ": 1291,
      "Excuse me ": 1292,
      "usually ": 1293,
      "Of course ": 1294,
      "char": 1295,
      "free ": 1296,
      "gir": 1297,
      "hours ": 1298,
      "mom": 1299,
      "old ": 1300,
      "ved ": 1301,
      "wan": 1302,
      "I was ": 1303,
      "ing the ": 1304,
      "ried ": 1305,
      "show ": 1306,
      "Yes , I ": 1307,
      "while ": 1308,
      "under": 1309,
      "pres": 1310,
      "pretty ": 1311,
      "... ": 1312,
      "a lot of ": 1313,
      "everything ": 1314,
      "ba": 1315,
      "ck": 1316,
      "ink ": 1317,
      "have any ": 1318,
      "['Good ": 1319,
      "believe ": 1320,
      ". I am ": 1321,
      "tal ": 1322,
      ". If ": 1323,
      "speci": 1324,
      "would like to ": 1325,
      "partment ": 1326,
      "guess ": 1327,
      "car ": 1328,
      ". My ": 1329,
      "count ": 1330,
      "! \"\n \" ": 1331,
      "cer": 1332,
      "fer ": 1333,
      "hear ": 1334,
      "tea": 1335,
      "ul": 1336,
      "wrong ": 1337,
      "ings ": 1338,
      "remember ": 1339,
      "tive ": 1340,
      "side ": 1341,
      ". \"\n \" I ": 1342,
      ". \"\n \" That's ": 1343,
      ". Is ": 1344,
      "comm": 1345,
      "go to the ": 1346,
      "[\"H": 1347,
      "month ": 1348,
      "soon ": 1349,
      "happen": 1350,
      ", Mr ": 1351,
      "turn ": 1352,
      "ensive ": 1353,
      "! \"": 1354,
      "Are you ": 1355,
      "av": 1356,
      "book ": 1357,
      "dent ": 1358,
      "ill ": 1359,
      "i , ": 1360,
      "son": 1361,
      "sea": 1362,
      "ture ": 1363,
      "what's ": 1364,
      "thought ": 1365,
      "infor": 1366,
      ". That ": 1367,
      "ans ": 1368,
      ", too ": 1369,
      ". '\n ' But ": 1370,
      "Then ": 1371,
      "There ": 1372,
      "They ": 1373,
      "with me ": 1374,
      "which ": 1375,
      "about it ": 1376,
      ". Thank you ": 1377,
      "take a ": 1378,
      ". Here ": 1379,
      "tional ": 1380,
      "tic ": 1381,
      "OK , ": 1382,
      "minute ": 1383,
      "game ": 1384,
      "wonder": 1385,
      "Joh": 1386,
      "dollars ": 1387,
      "Really ": 1388,
      "moment ": 1389,
      "ger ": 1390,
      "ny ": 1391,
      "ol": 1392,
      "ren": 1393,
      "tor ": 1394,
      "into ": 1395,
      ". '\n ' Oh , ": 1396,
      "ster ": 1397,
      "have the ": 1398,
      "that the ": 1399,
      "coll": 1400,
      "from the ": 1401,
      ". She ": 1402,
      "happy ": 1403,
      "leave ": 1404,
      "I'd like to ": 1405,
      "expensive ": 1406,
      "class ": 1407,
      "enjoy ": 1408,
      "tainly ": 1409,
      "Maybe ": 1410,
      "over": 1411,
      "ye ": 1412,
      "those ": 1413,
      ". You": 1414,
      "you'll ": 1415,
      "rece": 1416,
      "is it ": 1417,
      ". '\n ' Well , ": 1418,
      "til ": 1419,
      "it was ": 1420,
      "? '\n ' You ": 1421,
      "? '\n ' The ": 1422,
      "sto": 1423,
      "that I ": 1424,
      "['Do you ": 1425,
      "['Excuse me ": 1426,
      "play": 1427,
      "less ": 1428,
      "elcome ": 1429,
      "mus": 1430,
      "produc": 1431,
      "getting ": 1432,
      "Oh , I ": 1433,
      "2 ": 1434,
      "6 ": 1435,
      "In": 1436,
      "Mr ": 1437,
      "every ": 1438,
      "hour ": 1439,
      ". T": 1440,
      "you to ": 1441,
      "ari": 1442,
      "is very ": 1443,
      "easy ": 1444,
      "seen ": 1445,
      "shed ": 1446,
      "toge": 1447,
      "does": 1448,
      "should be ": 1449,
      "movie ": 1450,
      "heard ": 1451,
      "weekend ": 1452,
      "together ": 1453,
      "Great ": 1454,
      "V ": 1455,
      "Would you ": 1456,
      "bro": 1457,
      "bir": 1458,
      "cri": 1459,
      "done ": 1460,
      "even": 1461,
      "fe": 1462,
      "im ": 1463,
      "let ": 1464,
      "may ": 1465,
      "went ": 1466,
      "a s": 1467,
      "read ": 1468,
      "for your ": 1469,
      "play ": 1470,
      "ching ": 1471,
      "ited ": 1472,
      "I'm afraid ": 1473,
      "until ": 1474,
      "exc": 1475,
      "bus ": 1476,
      "qui": 1477,
      "fini": 1478,
      "col": 1479,
      ". So ": 1480,
      "fami": 1481,
      "look at ": 1482,
      "friend ": 1483,
      "every": 1484,
      "meet you ": 1485,
      "talk ": 1486,
      "learn ": 1487,
      "a few ": 1488,
      "yourself ": 1489,
      "cou": 1490,
      "cen": 1491,
      "hand": 1492,
      "uti": 1493,
      "thr": 1494,
      "ery ": 1495,
      ", how ": 1496,
      "ll right ": 1497,
      "m , ": 1498,
      "is your ": 1499,
      "stom": 1500,
      "have you ": 1501,
      "have been ": 1502,
      "that ’ s ": 1503,
      "acti": 1504,
      "sign ": 1505,
      "can you ": 1506,
      "let's ": 1507,
      "told ": 1508,
      "know what ": 1509,
      "coming ": 1510,
      "experi": 1511,
      "get a ": 1512,
      "? ']": 1513,
      "ques": 1514,
      "part ": 1515,
      "true ": 1516,
      "hard ": 1517,
      "give you ": 1518,
      "often ": 1519,
      "! \"\n ' ": 1520,
      "meric": 1521,
      "news ": 1522,
      "computer ": 1523,
      "tonight ": 1524,
      "Americ": 1525,
      "Li": 1526,
      "c ": 1527,
      "fl": 1528,
      "os": 1529,
      "oin": 1530,
      "ther": 1531,
      "having ": 1532,
      ". '\n ' O": 1533,
      "own": 1534,
      "list": 1535,
      "in my ": 1536,
      "? '\n ' It ": 1537,
      "? '\n ' Well , ": 1538,
      "? '\n ' Sure ": 1539,
      "are the ": 1540,
      ". '\n \" I ": 1541,
      "? '\n \" I ": 1542,
      "terri": 1543,
      "worry ": 1544,
      "there are ": 1545,
      "case ": 1546,
      "party ": 1547,
      "five ": 1548,
      "how to ": 1549,
      "bring ": 1550,
      "must be ": 1551,
      "matter ": 1552,
      "! '\n \" ": 1553,
      "8 ": 1554,
      "Let's ": 1555,
      "Pe": 1556,
      "Where ": 1557,
      "e-": 1558,
      "gre": 1559,
      "gla": 1560,
      "my": 1561,
      "oes ": 1562,
      "wea": 1563,
      "out": 1564,
      "the way ": 1565,
      "ener": 1566,
      "to go ": 1567,
      "res ": 1568,
      "k , ": 1569,
      "and a ": 1570,
      "for my ": 1571,
      "plea": 1572,
      "shi": 1573,
      "can ’ t ": 1574,
      "like it ": 1575,
      "we have ": 1576,
      "ago ": 1577,
      "uni": 1578,
      ". What's ": 1579,
      "? ' ' I ": 1580,
      "fil": 1581,
      "card ": 1582,
      "fast ": 1583,
      "When ": 1584,
      "later ": 1585,
      "dinner ": 1586,
      "school ": 1587,
      "dress ": 1588,
      "3 ": 1589,
      "Ac": 1590,
      "Cer": 1591,
      "Let me ": 1592,
      "Mon": 1593,
      "St": 1594,
      "ap": 1595,
      "coo": 1596,
      "des ": 1597,
      "hon": 1598,
      "mpl": 1599,
      "port ": 1600,
      "ouble ": 1601,
      ". F": 1602,
      ". G": 1603,
      "ang": 1604,
      "to you ": 1605,
      "resp": 1606,
      "? '\n ' No ": 1607,
      ". \"\n ' How ": 1608,
      "ably ": 1609,
      "do for you ": 1610,
      "sion ": 1611,
      "mation ": 1612,
      "mail ": 1613,
      "compl": 1614,
      "pping ": 1615,
      "quali": 1616,
      "posi": 1617,
      "take it ": 1618,
      "tel ": 1619,
      ". It ’ s ": 1620,
      "since ": 1621,
      "ven't ": 1622,
      "seems ": 1623,
      "staur": 1624,
      "wind": 1625,
      "different ": 1626,
      "recei": 1627,
      "music ": 1628,
      "TV ": 1629,
      "clu": 1630,
      "e.": 1631,
      "hun": 1632,
      "pick ": 1633,
      "won't ": 1634,
      ". E": 1635,
      ". I've ": 1636,
      ". Please ": 1637,
      "lling ": 1638,
      "haven't ": 1639,
      "enough ": 1640,
      "to your ": 1641,
      "arri": 1642,
      "a re": 1643,
      "recomm": 1644,
      ". '\n ' S": 1645,
      "life ": 1646,
      "in your ": 1647,
      "eauti": 1648,
      "stea": 1649,
      "with": 1650,
      "['M": 1651,
      "agree ": 1652,
      ". There ": 1653,
      ". ' ' What ": 1654,
      ". A ": 1655,
      "prefer ": 1656,
      "ester": 1657,
      "vel ": 1658,
      "trip ": 1659,
      "name is ": 1660,
      "speak ": 1661,
      "drink ": 1662,
      "through ": 1663,
      "myself ": 1664,
      "We": 1665,
      "am": 1666,
      "away ": 1667,
      "boo": 1668,
      "des": 1669,
      "fic": 1670,
      "lan": 1671,
      "ron": 1672,
      "uan ": 1673,
      "vac": 1674,
      "thir": 1675,
      ". That's ": 1676,
      "ani": 1677,
      ", what ": 1678,
      "ones ": 1679,
      "you know ": 1680,
      "me to ": 1681,
      "on a ": 1682,
      "ood": 1683,
      "ates ": 1684,
      "nee": 1685,
      "secon": 1686,
      "out of ": 1687,
      "? '\n \" I'm ": 1688,
      "? '\n \" Yes , ": 1689,
      "so much ": 1690,
      ". Then ": 1691,
      "adv": 1692,
      "poli": 1693,
      "ey , ": 1694,
      "tea ": 1695,
      "trying ": 1696,
      "they are ": 1697,
      "ticket ": 1698,
      "wedding ": 1699,
      "month": 1700,
      "friends ": 1701,
      ". Let's ": 1702,
      "I don't know ": 1703,
      "story ": 1704,
      "! \"]": 1705,
      "information ": 1706,
      "eautiful ": 1707,
      "10 ": 1708,
      "Here ": 1709,
      "ake ": 1710,
      "bas": 1711,
      "cha": 1712,
      "care ": 1713,
      "he": 1714,
      "he's ": 1715,
      "oll": 1716,
      "send ": 1717,
      "ted to ": 1718,
      "vel": 1719,
      "s , ": 1720,
      "s and ": 1721,
      "to me ": 1722,
      "a new ": 1723,
      "is not ": 1724,
      "ower ": 1725,
      "es are ": 1726,
      "lity ": 1727,
      "? '\n ' S": 1728,
      "et ’ s ": 1729,
      "lec": 1730,
      "world ": 1731,
      "spi": 1732,
      "spend ": 1733,
      "lations ": 1734,
      "view ": 1735,
      "if I ": 1736,
      "fav": 1737,
      ". You know ": 1738,
      "someone ": 1739,
      "offer ": 1740,
      ", thanks ": 1741,
      "China ": 1742,
      "appoin": 1743,
      "servation ": 1744,
      "This is ": 1745,
      "? \" ' ": 1746,
      "surance ": 1747,
      "ult ": 1748,
      "Really ? ": 1749,
      "family ": 1750,
      "Certainly ": 1751,
      "second ": 1752,
      "Don ’ t ": 1753,
      "bl": 1754,
      "bye ": 1755,
      "found ": 1756,
      "hur": 1757,
      "mess": 1758,
      "ne ": 1759,
      "pic": 1760,
      "um ": 1761,
      "ur ": 1762,
      "wal": 1763,
      "wear ": 1764,
      "ybe ": 1765,
      "restaur": 1766,
      "at all ": 1767,
      "live ": 1768,
      "? '\n ' We ": 1769,
      "of our ": 1770,
      "of them ": 1771,
      "being ": 1772,
      "ack": 1773,
      ". I don't ": 1774,
      ". \"\n ' Thank you ": 1775,
      "maybe ": 1776,
      "cho": 1777,
      ", I think ": 1778,
      ", I am ": 1779,
      "like that ": 1780,
      "als ": 1781,
      "mee": 1782,
      "high ": 1783,
      "don't you ": 1784,
      "No problem ": 1785,
      "contr": 1786,
      "care": 1787,
      "got a ": 1788,
      ". It was ": 1789,
      "able to ": 1790,
      "probably ": 1791,
      "! ' ' ": 1792,
      "married ": 1793,
      "isn't ": 1794,
      "give me ": 1795,
      "head ": 1796,
      ". When ": 1797,
      "drive ": 1798,
      "girl ": 1799,
      "understand ": 1800,
      "cky ": 1801,
      "20 ": 1802,
      "Bo": 1803,
      "Bei": 1804,
      "Come ": 1805,
      "In ": 1806,
      "ail": 1807,
      "cy ": 1808,
      "eg": 1809,
      "gin": 1810,
      "jing ": 1811,
      "kn": 1812,
      "ling ": 1813,
      "ping ": 1814,
      "was": 1815,
      "welcome ": 1816,
      "int ": 1817,
      ". Now ": 1818,
      "erci": 1819,
      "ans": 1820,
      ", it's ": 1821,
      "you have ": 1822,
      "is that ": 1823,
      ". '\n ' Is ": 1824,
      "ows ": 1825,
      "ste": 1826,
      "of a ": 1827,
      "atu": 1828,
      "ical ": 1829,
      "account ": 1830,
      ". I have ": 1831,
      ". I know ": 1832,
      "seat ": 1833,
      ". \"\n \" Oh , ": 1834,
      "? '\n \" It's ": 1835,
      "thinking ": 1836,
      "left ": 1837,
      "! You ": 1838,
      "loc": 1839,
      ". Would you ": 1840,
      "early ": 1841,
      "busy ": 1842,
      "possi": 1843,
      "fully ": 1844,
      "person": 1845,
      "hospi": 1846,
      "nothing ": 1847,
      "make it ": 1848,
      "lugg": 1849,
      "has been ": 1850,
      "seri": 1851,
      "run ": 1852,
      "didn ’ t ": 1853,
      "custom": 1854,
      "kids ": 1855,
      "ay I help you ": 1856,
      "interesting ": 1857,
      "avail": 1858,
      "experience ": 1859,
      "recommend ": 1860,
      "esterday ": 1861,
      "appointment ": 1862,
      "- ": 1863,
      "7 ": 1864,
      "Could you ": 1865,
      "New ": 1866,
      "Per": 1867,
      "Wow ": 1868,
      "bor": 1869,
      "bli": 1870,
      "cle": 1871,
      "cas": 1872,
      "city ": 1873,
      "dra": 1874,
      "down": 1875,
      "fun": 1876,
      "flight ": 1877,
      "hin": 1878,
      "hot ": 1879,
      "lar": 1880,
      "oy": 1881,
      "took ": 1882,
      "thes ": 1883,
      "ous": 1884,
      "ing": 1885,
      ". Can you ": 1886,
      "orts ": 1887,
      "lls ": 1888,
      "enty ": 1889,
      "of your ": 1890,
      "sever": 1891,
      "sity ": 1892,
      "mall ": 1893,
      "like the ": 1894,
      "this one ": 1895,
      ". We": 1896,
      "form ": 1897,
      "deli": 1898,
      "saw ": 1899,
      "parents ": 1900,
      ". '\n ' I ’ m ": 1901,
      ". You can ": 1902,
      "body ": 1903,
      "national ": 1904,
      "waiting ": 1905,
      "train": 1906,
      "a bit ": 1907,
      ". Let me ": 1908,
      "shopping ": 1909,
      ". Why ": 1910,
      "prom": 1911,
      "happened ": 1912,
      "position ": 1913,
      "meeting ": 1914,
      "Beijing ": 1915,
      "luggage ": 1916,
      "De": 1917,
      "Does ": 1918,
      "Okay ": 1919,
      "Right ": 1920,
      "Very ": 1921,
      "ai": 1922,
      "ait ": 1923,
      "ations ": 1924,
      "ball ": 1925,
      "cc": 1926,
      "cli": 1927,
      "deal ": 1928,
      "fron": 1929,
      "gn": 1930,
      "ker ": 1931,
      "ls ": 1932,
      "ok ": 1933,
      "sy": 1934,
      "sou": 1935,
      "won ’ t ": 1936,
      "yuan ": 1937,
      "yesterday ": 1938,
      "thday ": 1939,
      "insurance ": 1940,
      ". Just ": 1941,
      ". Can I ": 1942,
      "I have to ": 1943,
      "I can't ": 1944,
      "the same ": 1945,
      "ently ": 1946,
      "to make ": 1947,
      "ard ": 1948,
      "reas": 1949,
      ". '\n ' M": 1950,
      "sts ": 1951,
      ". I ’ Ve ": 1952,
      ". \"\n ' Do you ": 1953,
      "size ": 1954,
      "tax": 1955,
      ". \"\n \" Well , ": 1956,
      ". \"\n \" It's ": 1957,
      "verti": 1958,
      "versity ": 1959,
      ". '\n \" It's ": 1960,
      "like a ": 1961,
      "with a ": 1962,
      "itely ": 1963,
      "? You ": 1964,
      "about your ": 1965,
      "all right ": 1966,
      "comes ": 1967,
      "forwar": 1968,
      "there is ": 1969,
      "our company ": 1970,
      "finitely ": 1971,
      "came ": 1972,
      "too much ": 1973,
      "fun ": 1974,
      "has a ": 1975,
      "weeks ": 1976,
      ". Maybe ": 1977,
      "watching ": 1978,
      "had a ": 1979,
      "used to ": 1980,
      "clothes ": 1981,
      "service ": 1982,
      "talking ": 1983,
      "interested in ": 1984,
      "open ": 1985,
      "can I do for you ": 1986,
      "suppos": 1987,
      "special ": 1988,
      "wonderful ": 1989,
      "doesn't ": 1990,
      "window ": 1991,
      "available ": 1992,
      "front ": 1993,
      "supposed to ": 1994,
      "30 ": 1995,
      "Be": 1996,
      "Di": 1997,
      "Look ": 1998,
      "She ": 1999,
      "bed ": 2000,
      "cur": 2001,
      "dit ": 2002,
      "date ": 2003,
      "ement ": 2004,
      "fre": 2005,
      "flo": 2006,
      "let me ": 2007,
      "men": 2008,
      "oc": 2009,
      "rent ": 2010,
      "run": 2011,
      "sen": 2012,
      "wouldn't ": 2013,
      "y the way ": 2014,
      ", it ": 2015,
      ", that ": 2016,
      "ori": 2017,
      "ork ": 2018,
      "you will ": 2019,
      "you should ": 2020,
      ". '\n ' Yes , ": 2021,
      ". '\n ' The ": 2022,
      "an hour ": 2023,
      "stre": 2024,
      "stra": 2025,
      "of that ": 2026,
      "of my ": 2027,
      "ating ": 2028,
      "actually ": 2029,
      "sul": 2030,
      "as a ": 2031,
      "maj": 2032,
      "chance ": 2033,
      "? '\n \" No ": 2034,
      "almost ": 2035,
      "rather ": 2036,
      "unch ": 2037,
      "exerci": 2038,
      "build": 2039,
      "right now ": 2040,
      "sale ": 2041,
      "? '\n ' I think ": 2042,
      "person ": 2043,
      "trouble ": 2044,
      "hotel ": 2045,
      "we'll ": 2046,
      "a long ": 2047,
      "I've been ": 2048,
      "water ": 2049,
      "country ": 2050,
      "over there ": 2051,
      "heal": 2052,
      "store ": 2053,
      "What's the ": 2054,
      "shall ": 2055,
      "such a ": 2056,
      "speaking ": 2057,
      "manag": 2058,
      "['Hello , ": 2059,
      "['Good morning ": 2060,
      "team ": 2061,
      "evening ": 2062,
      "color ": 2063,
      "walk ": 2064,
      "restaurant ": 2065,
      "several ": 2066,
      "An": 2067,
      "All right ": 2068,
      "Par": 2069,
      "apartment ": 2070,
      "band ": 2071,
      "bought ": 2072,
      "dic": 2073,
      "ff ": 2074,
      "low ": 2075,
      "men ": 2076,
      "ng ": 2077,
      "net ": 2078,
      "smo": 2079,
      "t-": 2080,
      "tro": 2081,
      "tors ": 2082,
      "up": 2083,
      "thers ": 2084,
      ", a ": 2085,
      ", I'm ": 2086,
      "young ": 2087,
      "ond": 2088,
      "I should ": 2089,
      "the first ": 2090,
      "end": 2091,
      "to meet you ": 2092,
      "a , ": 2093,
      "is my ": 2094,
      ". '\n ' Thanks ": 2095,
      "ed the ": 2096,
      "list ": 2097,
      "of course ": 2098,
      "atten": 2099,
      "plan ": 2100,
      "plac": 2101,
      "abi": 2102,
      "tation ": 2103,
      "taking ": 2104,
      "taken ": 2105,
      "as well ": 2106,
      "with my ": 2107,
      "top ": 2108,
      "who": 2109,
      "this weekend ": 2110,
      "econ": 2111,
      ". Thanks ": 2112,
      "forei": 2113,
      "what you ": 2114,
      "high": 2115,
      "adverti": 2116,
      "take the ": 2117,
      "fill ": 2118,
      "full ": 2119,
      "tely ": 2120,
      "tele": 2121,
      "more than ": 2122,
      "both ": 2123,
      "lucky ": 2124,
      "when you ": 2125,
      "shop ": 2126,
      "publi": 2127,
      "called ": 2128,
      ". '\n ' That ’ s ": 2129,
      "would you like to ": 2130,
      "John ": 2131,
      "birthday ": 2132,
      "Actually ": 2133,
      "contract ": 2134,
      "hospital ": 2135,
      "1 ": 2136,
      "4 ": 2137,
      "Nice ": 2138,
      "York ": 2139,
      "cr": 2140,
      "dea": 2141,
      "een ": 2142,
      "el ": 2143,
      "ege ": 2144,
      "far ": 2145,
      "fect ": 2146,
      "gar": 2147,
      "ges ": 2148,
      "hu": 2149,
      "ise ": 2150,
      "kit": 2151,
      "ly": 2152,
      "lar ": 2153,
      "mp ": 2154,
      "ring ": 2155,
      "ren ": 2156,
      "says ": 2157,
      "anci": 2158,
      ", or ": 2159,
      ", I'll ": 2160,
      "I do ": 2161,
      "you go ": 2162,
      "reci": 2163,
      "at home ": 2164,
      "an ex": 2165,
      "wife ": 2166,
      "atur": 2167,
      "acce": 2168,
      ". I was ": 2169,
      ". I hope ": 2170,
      ". \"\n \" You ": 2171,
      "Your ": 2172,
      ". '\n \" Yes , ": 2173,
      "they": 2174,
      "child": 2175,
      "with your ": 2176,
      "worth ": 2177,
      "not sure ": 2178,
      "sport ": 2179,
      "progra": 2180,
      "coff": 2181,
      ", and the ": 2182,
      ". '\n ' I think ": 2183,
      "test ": 2184,
      "consi": 2185,
      "doc": 2186,
      ". Have you ": 2187,
      "guy ": 2188,
      "['Have you ": 2189,
      "anything else ": 2190,
      "clock ": 2191,
      "a good idea ": 2192,
      "wonder ": 2193,
      ". Could you ": 2194,
      "ssion ": 2195,
      "writing ": 2196,
      "sales ": 2197,
      "Monday ": 2198,
      "comple": 2199,
      "vacation ": 2200,
      "' ": 2201,
      "20": 2202,
      "50 ": 2203,
      "B ": 2204,
      "Fri": 2205,
      "bag": 2206,
      "cra": 2207,
      "dge ": 2208,
      "fac": 2209,
      "four ": 2210,
      "fic ": 2211,
      "her": 2212,
      "lk ": 2213,
      "mm ": 2214,
      "por": 2215,
      "peci": 2216,
      "s.": 2217,
      "swi": 2218,
      "sle": 2219,
      "vari": 2220,
      "into the ": 2221,
      ". R": 2222,
      "ering ": 2223,
      ", J": 2224,
      ", do you ": 2225,
      "once ": 2226,
      "to re": 2227,
      "a very ": 2228,
      "a minute ": 2229,
      "es of ": 2230,
      "on your ": 2231,
      "in this ": 2232,
      "? '\n ' Not ": 2233,
      "of this ": 2234,
      "wish ": 2235,
      "ated ": 2236,
      "ately ": 2237,
      "icken ": 2238,
      "betw": 2239,
      "behin": 2240,
      ". I just ": 2241,
      ". I ’ ll ": 2242,
      ". \"\n ' Oh , ": 2243,
      ". \"\n ' Well , ": 2244,
      "ables ": 2245,
      "secre": 2246,
      "sides ": 2247,
      "sug": 2248,
      ". \"\n \" I'm ": 2249,
      "che": 2250,
      "we are ": 2251,
      "? '\n \" That's ": 2252,
      "especi": 2253,
      "’ s the ": 2254,
      "means ": 2255,
      ". Well ": 2256,
      ". Where ": 2257,
      "aying ": 2258,
      "move ": 2259,
      "mother ": 2260,
      "provi": 2261,
      "definitely ": 2262,
      "[\"I'm ": 2263,
      "miss ": 2264,
      ", and I ": 2265,
      "trans": 2266,
      "how much ": 2267,
      "Who ": 2268,
      "sometimes ": 2269,
      "cell": 2270,
      ", then ": 2271,
      "happen ": 2272,
      ". '\n ' And ": 2273,
      "I don't think ": 2274,
      "appreci": 2275,
      "next week ": 2276,
      "shoes ": 2277,
      "diffic": 2278,
      "? \"]": 2279,
      "range ": 2280,
      "ee you ": 2281,
      "practi": 2282,
      "movies ": 2283,
      "gratu": 2284,
      "planning ": 2285,
      "kets ": 2286,
      "calling ": 2287,
      "'d better ": 2288,
      "break": 2289,
      "Tom ": 2290,
      "wanted to ": 2291,
      "college ": 2292,
      "stop ": 2293,
      "finished ": 2294,
      "terrible ": 2295,
      "mploy": 2296,
      "without ": 2297,
      "langu": 2298,
      "Come on ": 2299,
      "possible ": 2300,
      "personal ": 2301,
      "children ": 2302,
      "coffee ": 2303,
      "between ": 2304,
      "especially ": 2305,
      "appreciate ": 2306,
      "\n ' ": 2307,
      "10": 2308,
      "; ": 2309,
      "Con": 2310,
      "Un": 2311,
      "Wi": 2312,
      "air": 2313,
      "bit ": 2314,
      "beautiful ": 2315,
      "ced ": 2316,
      "caf": 2317,
      "dred ": 2318,
      "fla": 2319,
      "fru": 2320,
      "gy ": 2321,
      "ient ": 2322,
      "med ": 2323,
      "mous ": 2324,
      "r.": 2325,
      "scar": 2326,
      "tary ": 2327,
      "ys ": 2328,
      "zz": 2329,
      "inclu": 2330,
      "anies ": 2331,
      ", ma": 2332,
      "online ": 2333,
      "lli": 2334,
      "half ": 2335,
      "a p": 2336,
      ". '\n ' Yes ": 2337,
      ". '\n ' Why ": 2338,
      "tired ": 2339,
      "an appointment ": 2340,
      "? '\n ' What ": 2341,
      "? '\n ' Oh , ": 2342,
      "? '\n ' That ": 2343,
      "sted ": 2344,
      "ature ": 2345,
      "ices ": 2346,
      "ply ": 2347,
      ". I can ": 2348,
      ". I will ": 2349,
      "nec": 2350,
      ". \"\n ' You ": 2351,
      "suit ": 2352,
      "suit": 2353,
      "dist": 2354,
      "mal ": 2355,
      "! What ": 2356,
      "! How ": 2357,
      "about you ": 2358,
      "els ": 2359,
      ". In ": 2360,
      "under ": 2361,
      "get it ": 2362,
      "dep": 2363,
      "department ": 2364,
      "quar": 2365,
      "visit ": 2366,
      "point ": 2367,
      ". Are you ": 2368,
      "companies ": 2369,
      "Which ": 2370,
      "are you doing ": 2371,
      "'ll be ": 2372,
      "tell you ": 2373,
      "market ": 2374,
      ". '\n ' We ": 2375,
      "started ": 2376,
      "credit ": 2377,
      "seeing ": 2378,
      "looking for ": 2379,
      "anyway ": 2380,
      "John": 2381,
      "Inter": 2382,
      "told me ": 2383,
      "oodbye ": 2384,
      "months ": 2385,
      "wasn't ": 2386,
      "New York ": 2387,
      "smoking ": 2388,
      "foreign ": 2389,
      "doctor ": 2390,
      "Friday ": 2391,
      "behind ": 2392,
      " . ": 2393,
      "No": 2394,
      "Oly": 2395,
      "Pro": 2396,
      "ain": 2397,
      "ast ": 2398,
      "bank ": 2399,
      "et": 2400,
      "ew": 2401,
      "ece ": 2402,
      "edu": 2403,
      "fter ": 2404,
      "lon": 2405,
      "lunch ": 2406,
      "na ": 2407,
      "ned ": 2408,
      "ob": 2409,
      "oper": 2410,
      "ski": 2411,
      "town ": 2412,
      "yea": 2413,
      "zing ": 2414,
      "thank you ": 2415,
      "there's ": 2416,
      "ands ": 2417,
      ", right ": 2418,
      "you've ": 2419,
      "ons ": 2420,
      "you could ": 2421,
      "to have ": 2422,
      "to find ": 2423,
      "rest ": 2424,
      "reservation ": 2425,
      "er and ": 2426,
      "me a ": 2427,
      "ed by ": 2428,
      "on it ": 2429,
      "or a ": 2430,
      "it on ": 2431,
      "lies ": 2432,
      "? '\n ' My ": 2433,
      "sty": 2434,
      "ste ": 2435,
      "of you ": 2436,
      "They": 2437,
      "ics ": 2438,
      "actly ": 2439,
      "sear": 2440,
      "do it ": 2441,
      "do that ": 2442,
      "sister ": 2443,
      "sub": 2444,
      "succ": 2445,
      "chen ": 2446,
      "chicken ": 2447,
      "we should ": 2448,
      "ages ": 2449,
      "forgot ": 2450,
      "was the ": 2451,
      ", but you ": 2452,
      "history ": 2453,
      "cost ": 2454,
      "cold ": 2455,
      "posit ": 2456,
      "cont": 2457,
      "ometimes ": 2458,
      "It ’ s ": 2459,
      "hold ": 2460,
      "mine ": 2461,
      "come in ": 2462,
      "famous ": 2463,
      "boss ": 2464,
      "help me ": 2465,
      "bill ": 2466,
      ", you know ": 2467,
      "problems ": 2468,
      "brary ": 2469,
      "Is it ": 2470,
      "Is there ": 2471,
      "? \" \" ": 2472,
      "cated ": 2473,
      "Don't worry ": 2474,
      "type ": 2475,
      ". '\n ' It ’ s ": 2476,
      ". This is ": 2477,
      "charge ": 2478,
      "couple ": 2479,
      "question ": 2480,
      "pleasure ": 2481,
      "hundred ": 2482,
      "police ": 2483,
      "message ": 2484,
      "serious ": 2485,
      "floor ": 2486,
      "running ": 2487,
      "econom": 2488,
      "kitchen ": 2489,
      "slee": 2490,
      "difficult ": 2491,
      "Olymp": 2492,
      "19": 2493,
      "Have you ": 2494,
      "Pau": 2495,
      "day": 2496,
      "fes": 2497,
      "few ": 2498,
      "lin": 2499,
      "lright ": 2500,
      "okay ": 2501,
      "tou": 2502,
      "tables ": 2503,
      "vo": 2504,
      "ang ": 2505,
      "anti": 2506,
      "anta": 2507,
      ", he ": 2508,
      ", they ": 2509,
      ", because ": 2510,
      "a great ": 2511,
      ". '\n ' So ": 2512,
      ". '\n ' Great ": 2513,
      "? '\n ' He ": 2514,
      "of it ": 2515,
      "for two ": 2516,
      "have some ": 2517,
      "['You ": 2518,
      "plenty ": 2519,
      "beer ": 2520,
      "ach": 2521,
      "ach ": 2522,
      "ghts ": 2523,
      ". \"\n ' It ": 2524,
      "aby ": 2525,
      "dies ": 2526,
      "main ": 2527,
      "making ": 2528,
      "along ": 2529,
      "this is ": 2530,
      "this morning ": 2531,
      "? What ": 2532,
      "ection ": 2533,
      "will you ": 2534,
      "teri": 2535,
      "assi": 2536,
      "asked ": 2537,
      "worked ": 2538,
      "ext ": 2539,
      "irs ": 2540,
      "irst ": 2541,
      "sports ": 2542,
      "ds of ": 2543,
      "? ' ' Yes , ": 2544,
      "do you do ": 2545,
      "do you like ": 2546,
      "tten ": 2547,
      "mith ": 2548,
      ". An": 2549,
      "? '\n ' I am ": 2550,
      "if we ": 2551,
      "boy ": 2552,
      "gest ": 2553,
      "luck ": 2554,
      "weight ": 2555,
      ". But I ": 2556,
      "going to be ": 2557,
      "interview ": 2558,
      "cele": 2559,
      "I've got ": 2560,
      ", you can ": 2561,
      "pain": 2562,
      "pair ": 2563,
      "ven ’ t ": 2564,
      "last night ": 2565,
      "most important ": 2566,
      "marri": 2567,
      ". '\n ' Are you ": 2568,
      ". '\n ' Where ": 2569,
      "vege": 2570,
      "close ": 2571,
      "stud": 2572,
      "either ": 2573,
      "ouldn ’ t ": 2574,
      ". '\n ' Here ": 2575,
      "share ": 2576,
      "gradu": 2577,
      "Yeah , I ": 2578,
      "write ": 2579,
      "would you like ": 2580,
      "mmer ": 2581,
      "bag ": 2582,
      ". Your ": 2583,
      "? '\n ' You can ": 2584,
      "have you been ": 2585,
      "questions ": 2586,
      "American ": 2587,
      "glad to ": 2588,
      "university ": 2589,
      "needs ": 2590,
      "favor": 2591,
      "choice ": 2592,
      "taxi ": 2593,
      "forward to ": 2594,
      "building ": 2595,
      "ability ": 2596,
      "aturday ": 2597,
      "cellent ": 2598,
      "gratulations ": 2599,
      ".How ": 2600,
      "000 ": 2601,
      "200 ": 2602,
      "Ho": 2603,
      "Lond": 2604,
      "Mo": 2605,
      "Mar": 2606,
      "Next ": 2607,
      "Tw": 2608,
      "To ": 2609,
      "air ": 2610,
      "elec": 2611,
      "fit ": 2612,
      "foo": 2613,
      "fall": 2614,
      "foll": 2615,
      "gh , ": 2616,
      "gener": 2617,
      "ject ": 2618,
      "led ": 2619,
      "land ": 2620,
      "lot ": 2621,
      "met ": 2622,
      "old": 2623,
      "rs ": 2624,
      "sound ": 2625,
      "stic ": 2626,
      "tend ": 2627,
      "tball ": 2628,
      "u ": 2629,
      "won ": 2630,
      "win ": 2631,
      "zy ": 2632,
      "thy ": 2633,
      "thanks ": 2634,
      ", what's ": 2635,
      ", which ": 2636,
      "hall ": 2637,
      "haven ’ t ": 2638,
      "the best ": 2639,
      "enti": 2640,
      "to my ": 2641,
      "to say ": 2642,
      "art ": 2643,
      "rela": 2644,
      "library ": 2645,
      "in our ": 2646,
      "? '\n ' A": 2647,
      "for that ": 2648,
      "that is ": 2649,
      "ick": 2650,
      "ness ": 2651,
      "ross ": 2652,
      "short ": 2653,
      "sun": 2654,
      "takes ": 2655,
      "direc": 2656,
      ". '\n \" Well , ": 2657,
      "maga": 2658,
      "ell me ": 2659,
      "chea": 2660,
      "letter ": 2661,
      "with it ": 2662,
      "rain ": 2663,
      "about a ": 2664,
      "comfor": 2665,
      "medi": 2666,
      "bur": 2667,
      "time to ": 2668,
      "cation ": 2669,
      "fied ": 2670,
      ". '\n ' I see ": 2671,
      "? '\n ' I ’ m ": 2672,
      "compli": 2673,
      "prepar": 2674,
      "tickets ": 2675,
      "interest ": 2676,
      "need a ": 2677,
      ", that's ": 2678,
      "reading ": 2679,
      "many people ": 2680,
      "something to ": 2681,
      "Why don't you ": 2682,
      "vely ": 2683,
      "tries ": 2684,
      "stories ": 2685,
      "’ Ve been ": 2686,
      "buy a ": 2687,
      "you're right ": 2688,
      "ty-": 2689,
      "looks like ": 2690,
      "hear that ": 2691,
      "['Excuse me , ": 2692,
      "product ": 2693,
      "exciting ": 2694,
      "excited ": 2695,
      "everyone ": 2696,
      "listen ": 2697,
      "glad ": 2698,
      "cooking ": 2699,
      "respon": 2700,
      "pick up ": 2701,
      "arrive ": 2702,
      ". There are ": 2703,
      "thirty ": 2704,
      ". Let's go ": 2705,
      "training ": 2706,
      "exercise ": 2707,
      "places ": 2708,
      "practice ": 2709,
      "Bec": 2710,
      "C ": 2711,
      "D ": 2712,
      "He's ": 2713,
      "Let ’ s ": 2714,
      "Mi": 2715,
      "Su": 2716,
      "Saturday ": 2717,
      "ames ": 2718,
      "aper ": 2719,
      "bri": 2720,
      "dam ": 2721,
      "ea ": 2722,
      "ett": 2723,
      "eight ": 2724,
      "eyes ": 2725,
      "employ": 2726,
      "ging ": 2727,
      "gin ": 2728,
      "gone ": 2729,
      "gani": 2730,
      "hus": 2731,
      "igh": 2732,
      "ming ": 2733,
      "may I help you ": 2734,
      "oh , ": 2735,
      "others ": 2736,
      "py ": 2737,
      "ption ": 2738,
      "pur": 2739,
      "ssed ": 2740,
      "tor": 2741,
      "erv": 2742,
      ", it ’ s ": 2743,
      "organi": 2744,
      "you have to ": 2745,
      "you ’ re ": 2746,
      "hate ": 2747,
      "haps ": 2748,
      "en't ": 2749,
      "enter ": 2750,
      "regu": 2751,
      "is too ": 2752,
      ". '\n ' No ": 2753,
      ". '\n ' Good ": 2754,
      ". '\n ' OK ": 2755,
      ". '\n ' Did you ": 2756,
      "owers ": 2757,
      "ed up ": 2758,
      "in front ": 2759,
      "? '\n ' No , ": 2760,
      "? '\n ' Of course ": 2761,
      "stri": 2762,
      "en ’ t ": 2763,
      "ator ": 2764,
      ". I want to ": 2765,
      ". I don ’ t ": 2766,
      "road ": 2767,
      ". \"\n ' That ": 2768,
      "sion": 2769,
      "six ": 2770,
      "shes ": 2771,
      "your name ": 2772,
      "tally ": 2773,
      ". \"\n \" I'll ": 2774,
      ". \"\n \" You're ": 2775,
      "verything ": 2776,
      "can be ": 2777,
      "allow": 2778,
      ". '\n \" You ": 2779,
      ", I will ": 2780,
      ", I don't ": 2781,
      "? '\n \" Yes ": 2782,
      "with her ": 2783,
      "about that ": 2784,
      "eling ": 2785,
      "know the ": 2786,
      "spaper ": 2787,
      ". ' ' How ": 2788,
      ", but it ": 2789,
      ", but we ": 2790,
      "do you mean ": 2791,
      "affor": 2792,
      "[\"It's ": 2793,
      "final ": 2794,
      "mista": 2795,
      "camer": 2796,
      "fish ": 2797,
      "should I ": 2798,
      "tru": 2799,
      "holi": 2800,
      ". He's ": 2801,
      "board ": 2802,
      "Chri": 2803,
      ". May I ": 2804,
      "['Hi , ": 2805,
      "when I ": 2806,
      "well , ": 2807,
      "at the moment ": 2808,
      "tradi": 2809,
      ", thank you ": 2810,
      ". \" ' What ": 2811,
      "friend": 2812,
      "could be ": 2813,
      ". Let ’ s ": 2814,
      "least ": 2815,
      ". '\n ' Would you ": 2816,
      "ils ": 2817,
      ". How much ": 2818,
      "cording ": 2819,
      "seem ": 2820,
      ". '\n ' How much ": 2821,
      "$ 1": 2822,
      ", so I ": 2823,
      "recently ": 2824,
      "piece ": 2825,
      "usual ": 2826,
      "If you ": 2827,
      "catch ": 2828,
      "suppose ": 2829,
      ". By the way ": 2830,
      "sounds like ": 2831,
      "discu": 2832,
      "newspaper ": 2833,
      "impre": 2834,
      "['Good afternoon ": 2835,
      "products ": 2836,
      "finish ": 2837,
      "center ": 2838,
      "handle ": 2839,
      "ship ": 2840,
      "local ": 2841,
      "major ": 2842,
      "attention ": 2843,
      "public ": 2844,
      "they're ": 2845,
      "Johnson ": 2846,
      "Paul ": 2847,
      "favorite ": 2848,
      "comfortable ": 2849,
      ".But ": 2850,
      ".It ": 2851,
      "500 ": 2852,
      "Ab": 2853,
      "Apri": 2854,
      "Fine ": 2855,
      "Gu": 2856,
      "Hello ": 2857,
      "M ": 2858,
      "Sir ": 2859,
      "ao ": 2860,
      "ahead ": 2861,
      "cut ": 2862,
      "couldn't ": 2863,
      "dec": 2864,
      "eti": 2865,
      "fact ": 2866,
      "gle ": 2867,
      "key ": 2868,
      "mple ": 2869,
      "meal ": 2870,
      "nment ": 2871,
      "pounds ": 2872,
      "sical ": 2873,
      "wear": 2874,
      "inside ": 2875,
      "instea": 2876,
      "onable ": 2877,
      "you must ": 2878,
      "ll-": 2879,
      "hat": 2880,
      "the price ": 2881,
      "to work ": 2882,
      "a big ": 2883,
      "a moment ": 2884,
      "report ": 2885,
      "er than ": 2886,
      "is so ": 2887,
      ". '\n ' Sure ": 2888,
      ". '\n ' Can you ": 2889,
      ". '\n ' Yeah , ": 2890,
      ". '\n ' Does ": 2891,
      "at your ": 2892,
      "on my ": 2893,
      "and we ": 2894,
      "and see ": 2895,
      "liked ": 2896,
      "lities ": 2897,
      "? '\n ' O": 2898,
      "? '\n ' There ": 2899,
      "ster": 2900,
      "for it ": 2901,
      "that we ": 2902,
      "begin": 2903,
      "acci": 2904,
      ". \"\n ' A": 2905,
      "do I ": 2906,
      "shing ": 2907,
      "she's ": 2908,
      "tain ": 2909,
      "taste ": 2910,
      "makes ": 2911,
      "cher ": 2912,
      "! H": 2913,
      "! I'm ": 2914,
      "rain": 2915,
      "I'm not ": 2916,
      "know how to ": 2917,
      "words ": 2918,
      "worried ": 2919,
      "lost ": 2920,
      "lose ": 2921,
      "exchange ": 2922,
      "memb": 2923,
      "get the ": 2924,
      "get to ": 2925,
      "fort": 2926,
      "very good ": 2927,
      ". ' ' Thank you ": 2928,
      "law ": 2929,
      "what I ": 2930,
      "do you want to ": 2931,
      "financi": 2932,
      "? \"\n \" Yes , ": 2933,
      "? \"\n \" It's ": 2934,
      ". After ": 2935,
      "park ": 2936,
      "going to the ": 2937,
      "future ": 2938,
      "conven": 2939,
      "concer": 2940,
      "they were ": 2941,
      ". Have ": 2942,
      "father ": 2943,
      "make the ": 2944,
      "make sure ": 2945,
      "gets ": 2946,
      "duce ": 2947,
      "are you going to ": 2948,
      "solu": 2949,
      "serve ": 2950,
      "traff": 2951,
      "travel ": 2952,
      "past ": 2953,
      "can't be ": 2954,
      "hard to ": 2955,
      "countries ": 2956,
      "tures ": 2957,
      ". '\n ' All right ": 2958,
      "kidding ": 2959,
      "tried ": 2960,
      "study ": 2961,
      ". '\n ' You are ": 2962,
      ". They are ": 2963,
      ". '\n ' How long ": 2964,
      "interested ": 2965,
      "rect ": 2966,
      "watch the ": 2967,
      ". '\n ' Have you ": 2968,
      "goes ": 2969,
      "gover": 2970,
      "these days ": 2971,
      "surpri": 2972,
      "invite ": 2973,
      "juice ": 2974,
      "schedu": 2975,
      "does it ": 2976,
      "difference ": 2977,
      "decision ": 2978,
      "to see you ": 2979,
      "happens ": 2980,
      "seafood ": 2981,
      "wondering ": 2982,
      "playing ": 2983,
      "brother ": 2984,
      "feeling ": 2985,
      "America ": 2986,
      "flowers ": 2987,
      "Let me see ": 2988,
      "trying to ": 2989,
      "stem ": 2990,
      "ously ": 2991,
      "fresh ": 2992,
      "whole ": 2993,
      "advertising ": 2994,
      "telephone ": 2995,
      "suggest ": 2996,
      "breakfast ": 2997,
      "language ": 2998,
      "fruit ": 2999,
      "Nothing ": 3000,
      "style ": 3001,
      "search ": 3002,
      "London ": 3003,
      "Christ": 3004,
      "traditional ": 3005,
      "April ": 3006,
      "Au": 3007,
      "Ju": 3008,
      "Ok ": 3009,
      "T ": 3010,
      "Take ": 3011,
      "aw": 3012,
      "ama": 3013,
      "ause ": 3014,
      "cool ": 3015,
      "dd": 3016,
      "dro": 3017,
      "ders ": 3018,
      "dance ": 3019,
      "dau": 3020,
      "eld ": 3021,
      "eff": 3022,
      "ety ": 3023,
      "equi": 3024,
      "eteri": 3025,
      "flu": 3026,
      "fess": 3027,
      "gent ": 3028,
      "ill": 3029,
      "ive ": 3030,
      "od ": 3031,
      "pac": 3032,
      "pment ": 3033,
      "rom": 3034,
      "round ": 3035,
      "race ": 3036,
      "sk": 3037,
      "sn": 3038,
      "sent ": 3039,
      "sick ": 3040,
      "small ": 3041,
      "twi": 3042,
      "use": 3043,
      "zed ": 3044,
      "though ": 3045,
      "ince ": 3046,
      "invi": 3047,
      "intro": 3048,
      "ane ": 3049,
      ", not ": 3050,
      ", just ": 3051,
      ", especially ": 3052,
      "ore ": 3053,
      "you were ": 3054,
      "hate": 3055,
      "the last ": 3056,
      "ening ": 3057,
      "to take ": 3058,
      "to keep ": 3059,
      "a day ": 3060,
      "return ": 3061,
      "resul": 3062,
      "is really ": 3063,
      "is more ": 3064,
      ". '\n ' Well , I ": 3065,
      ". '\n ' Don ’ t ": 3066,
      "at a ": 3067,
      "at that ": 3068,
      "at least ": 3069,
      "tice ": 3070,
      "on this ": 3071,
      "it in ": 3072,
      "it for ": 3073,
      "it out ": 3074,
      "and they ": 3075,
      "lim": 3076,
      "in mind ": 3077,
      "? '\n ' Well , I ": 3078,
      "stan": 3079,
      "ically ": 3080,
      "['The ": 3081,
      "['Are you ": 3082,
      "are your ": 3083,
      "ghter ": 3084,
      "neigh": 3085,
      ". \"\n ' Yes , ": 3086,
      "site ": 3087,
      "simple ": 3088,
      "out the ": 3089,
      ". \"\n \" But ": 3090,
      "vers": 3091,
      "very": 3092,
      "dition ": 3093,
      ". '\n \" H": 3094,
      ". '\n \" Oh , ": 3095,
      "we go ": 3096,
      "we were ": 3097,
      "? '\n \" No , ": 3098,
      "level ": 3099,
      "! It ": 3100,
      "to-": 3101,
      "one of the ": 3102,
      "this time ": 3103,
      "? It's ": 3104,
      "tion of ": 3105,
      "es.": 3106,
      "about this ": 3107,
      "ected ": 3108,
      "ason ": 3109,
      "logi": 3110,
      "lovely ": 3111,
      "expl": 3112,
      "exactly ": 3113,
      "med": 3114,
      "very well ": 3115,
      "very nice ": 3116,
      "eep ": 3117,
      "? ' ' Yes ": 3118,
      ". ' ' W": 3119,
      ". ' ' I ": 3120,
      "deposit ": 3121,
      "do you have ": 3122,
      "do you need ": 3123,
      "quick ": 3124,
      "? \"\n \" I ": 3125,
      "visi": 3126,
      "milk ": 3127,
      "popu": 3128,
      "camp": 3129,
      "figu": 3130,
      ". '\n ' I know ": 3131,
      ". '\n ' I am ": 3132,
      "? \"\n ' I ": 3133,
      "should have ": 3134,
      "I'll be ": 3135,
      "hold": 3136,
      "have a look ": 3137,
      "gue ": 3138,
      "way , ": 3139,
      "help": 3140,
      ". See you ": 3141,
      "notice ": 3142,
      "cious ": 3143,
      "make you ": 3144,
      "make a ": 3145,
      "it's a ": 3146,
      "are you going ": 3147,
      "['Hi ": 3148,
      "prices ": 3149,
      "soci": 3150,
      "travel": 3151,
      "paper ": 3152,
      "kinds of ": 3153,
      "cul": 3154,
      "last week ": 3155,
      "’ ll be ": 3156,
      "isn ’ t ": 3157,
      "? ' \" That's ": 3158,
      "appli": 3159,
      "games ": 3160,
      "didn't know ": 3161,
      "stuff ": 3162,
      "did you do ": 3163,
      "can I help you ": 3164,
      "such as ": 3165,
      "nivers": 3166,
      "enjoy": 3167,
      "mming ": 3168,
      "decide ": 3169,
      "pressure ": 3170,
      ". Is that ": 3171,
      ". That ’ s ": 3172,
      "They are ": 3173,
      "take a look ": 3174,
      "rench ": 3175,
      "heard that ": 3176,
      "Would you like ": 3177,
      "cribe ": 3178,
      "let's go ": 3179,
      "Peter ": 3180,
      "People ": 3181,
      "film ": 3182,
      "quality ": 3183,
      "receipt ": 3184,
      "booked ": 3185,
      "desk ": 3186,
      "black ": 3187,
      "clean ": 3188,
      "reasonable ": 3189,
      "talking about ": 3190,
      "consider": 3191,
      "secretary ": 3192,
      "airport ": 3193,
      "cafeteri": 3194,
      "depends ": 3195,
      "They're ": 3196,
      "couple of ": 3197,
      "sleep ": 3198,
      "plenty of ": 3199,
      ". Any": 3200,
      "pair of ": 3201,
      "marriage ": 3202,
      "vegetables ": 3203,
      "Two ": 3204,
      "magaz": 3205,
      "responsi": 3206,
      "sional ": 3207,
      "mistake ": 3208,
      "financial ": 3209,
      "traffic ": 3210,
      "government ": 3211,
      "fessor ": 3212,
      "hatever ": 3213,
      "% ": 3214,
      ",000 ": 3215,
      "-in ": 3216,
      ".You ": 3217,
      "12 ": 3218,
      ": ": 3219,
      "Ad": 3220,
      "Com": 3221,
      "Center ": 3222,
      "French ": 3223,
      "Jen": 3224,
      "May I ": 3225,
      "Qu": 3226,
      "Sun": 3227,
      "Tim ": 3228,
      "Tell me ": 3229,
      "apo": 3230,
      "bs ": 3231,
      "back": 3232,
      "cel": 3233,
      "cup ": 3234,
      "could you ": 3235,
      "ded to ": 3236,
      "dur": 3237,
      "dru": 3238,
      "ef": 3239,
      "fur": 3240,
      "gon": 3241,
      "ged ": 3242,
      "gage ": 3243,
      "idea": 3244,
      "kers ": 3245,
      "knew ": 3246,
      "ss": 3247,
      "sci": 3248,
      "stic": 3249,
      "ton ": 3250,
      "ught ": 3251,
      "vir": 3252,
      "y-": 3253,
      "thou": 3254,
      "thous": 3255,
      "ine": 3256,
      "ini": 3257,
      ". D": 3258,
      ". Oh , ": 3259,
      "annivers": 3260,
      ", your ": 3261,
      ", my ": 3262,
      ", if you ": 3263,
      "I will ": 3264,
      "the other ": 3265,
      "the police ": 3266,
      "to help ": 3267,
      "to pay ": 3268,
      "arm ": 3269,
      "ark ": 3270,
      "arran": 3271,
      "aren't ": 3272,
      "aren ’ t ": 3273,
      "rely ": 3274,
      "real ": 3275,
      "research ": 3276,
      "m . ": 3277,
      "is this ": 3278,
      ". '\n ' Oh ": 3279,
      ". '\n ' Yes , I ": 3280,
      ". '\n ' When ": 3281,
      "owing ": 3282,
      "ow's ": 3283,
      "tis": 3284,
      "on , ": 3285,
      "or not ": 3286,
      "liter": 3287,
      "living ": 3288,
      "oose ": 3289,
      "? '\n ' Sorry ": 3290,
      "easi": 3291,
      "eating ": 3292,
      "stly ": 3293,
      "staf": 3294,
      "of people ": 3295,
      "of us ": 3296,
      "wise ": 3297,
      "['Did you ": 3298,
      "are not ": 3299,
      "are they ": 3300,
      "aci": 3301,
      ". I can't ": 3302,
      ". \"\n ' Thanks ": 3303,
      "do the ": 3304,
      "shouldn't ": 3305,
      "sual ": 3306,
      "out of the ": 3307,
      ". \"\n \" H": 3308,
      ". \"\n \" I'm sorry ": 3309,
      "disa": 3310,
      ". '\n \" It ": 3311,
      ", I have ": 3312,
      ", I can ": 3313,
      "we have a ": 3314,
      "we could ": 3315,
      "? '\n \" Not ": 3316,
      "with that ": 3317,
      "with us ": 3318,
      "! That ": 3319,
      "! The ": 3320,
      "so on ": 3321,
      "agre": 3322,
      "asking ": 3323,
      "une ": 3324,
      "get some ": 3325,
      "ts and ": 3326,
      "there any ": 3327,
      "there is a ": 3328,
      "? ' ' Sure ": 3329,
      "? ' ' Yes , I ": 3330,
      ". ' ' You ": 3331,
      "here , ": 3332,
      "profes": 3333,
      "what the ": 3334,
      "design ": 3335,
      "devel": 3336,
      "do you want ": 3337,
      "he was ": 3338,
      "in the world ": 3339,
      "address ": 3340,
      "ank you": 3341,
      "[\"I ": 3342,
      "[\"What's ": 3343,
      "finally ": 3344,
      "? \"\n \" That's ": 3345,
      "vities ": 3346,
      "viol": 3347,
      "some more ": 3348,
      "copy ": 3349,
      "see the ": 3350,
      "see your ": 3351,
      "satis": 3352,
      ". All ": 3353,
      "file ": 3354,
      "field ": 3355,
      "No . ": 3356,
      "telling ": 3357,
      "perfect ": 3358,
      "end of the ": 3359,
      "guys ": 3360,
      ". Smith ": 3361,
      "cards ": 3362,
      "sol": 3363,
      "single ": 3364,
      "trade ": 3365,
      "paid ": 3366,
      "better than ": 3367,
      ", though ": 3368,
      "is the best ": 3369,
      "no idea ": 3370,
      "a beautiful ": 3371,
      "for a while ": 3372,
      ". It's a ": 3373,
      "leaving ": 3374,
      ". I'll be ": 3375,
      "find a ": 3376,
      "before the ": 3377,
      "checked ": 3378,
      "['I am ": 3379,
      ". '\n ' Wow ": 3380,
      "? ' \" I'm ": 3381,
      "next time ": 3382,
      "keeping ": 3383,
      "using ": 3384,
      "used ": 3385,
      "call you ": 3386,
      "call me ": 3387,
      "student ": 3388,
      "after the ": 3389,
      "My name is ": 3390,
      ". Do you want to ": 3391,
      "Chinese food ": 3392,
      ". Which ": 3393,
      "latest ": 3394,
      "$ 200 ": 3395,
      "looking forward to ": 3396,
      "auth": 3397,
      "buy some ": 3398,
      "three days ": 3399,
      "plane ": 3400,
      "plants ": 3401,
      ". One ": 3402,
      ". Our ": 3403,
      "jump ": 3404,
      "'d like to ": 3405,
      "pass ": 3406,
      "passport ": 3407,
      "break ": 3408,
      "computers ": 3409,
      "show you ": 3410,
      "pressed ": 3411,
      "pretty good ": 3412,
      "bath": 3413,
      "certainly ": 3414,
      "activities ": 3415,
      "weather ": 3416,
      "pleas": 3417,
      "films ": 3418,
      "advice ": 3419,
      "career ": 3420,
      "knows ": 3421,
      "cash ": 3422,
      ". We'll ": 3423,
      "promo": 3424,
      "system ": 3425,
      "soup ": 3426,
      "health ": 3427,
      "manager ": 3428,
      "dicine ": 3429,
      "Nice to meet you ": 3430,
      "accep": 3431,
      "completely ": 3432,
      "baggage ": 3433,
      "various ": 3434,
      "provide ": 3435,
      "Congratulations ": 3436,
      "With ": 3437,
      ", madam ": 3438,
      "suitcase ": 3439,
      "Internet ": 3440,
      "longer ": 3441,
      "yeah ": 3442,
      "success": 3443,
      "antastic ": 3444,
      "celebr": 3445,
      "studying ": 3446,
      "follow ": 3447,
      "Because ": 3448,
      "husband ": 3449,
      "friendly ": 3450,
      "solutely ": 3451,
      "schedule ": 3452,
      "twice ": 3453,
      "invitation ": 3454,
      "apologi": 3455,
      "ideas ": 3456,
      "thousand ": 3457,
      "anniversary ": 3458,
      "staff ": 3459,
      "professional ": 3460,
      "'clock ": 3461,
      "'\n ' ": 3462,
      "--": 3463,
      "15 ": 3464,
      "13 ": 3465,
      "25 ": 3466,
      ":00 ": 3467,
      ":30 ": 3468,
      "Bu": 3469,
      "For": 3470,
      "For ": 3471,
      "Gre": 3472,
      "Me ": 3473,
      "One ": 3474,
      "Po": 3475,
      "Tai": 3476,
      "US": 3477,
      "Will ": 3478,
      "bly ": 3479,
      "bla": 3480,
      "bloc": 3481,
      "baby ": 3482,
      "cat ": 3483,
      "ction ": 3484,
      "face ": 3485,
      "gen": 3486,
      "gas ": 3487,
      "gave ": 3488,
      "ima": 3489,
      "ide ": 3490,
      "lf": 3491,
      "ma ": 3492,
      "mea": 3493,
      "non": 3494,
      "nor": 3495,
      "o'clock ": 3496,
      "pen ": 3497,
      "pid ": 3498,
      "rown ": 3499,
      "saf": 3500,
      "sn't ": 3501,
      "sour": 3502,
      "treat ": 3503,
      "vy ": 3504,
      "val": 3505,
      "val ": 3506,
      "wom": 3507,
      "zen ": 3508,
      "ina ": 3509,
      "incre": 3510,
      ". N": 3511,
      ". No ": 3512,
      ". Johnson ": 3513,
      ", where ": 3514,
      "onder": 3515,
      "one-": 3516,
      "you a ": 3517,
      "you up ": 3518,
      "eng": 3519,
      "ens ": 3520,
      "to meet ": 3521,
      "to check ": 3522,
      "artic": 3523,
      "a nice ": 3524,
      "reet ": 3525,
      "resu": 3526,
      "is just ": 3527,
      "it . '\n ' ": 3528,
      "it ? \"\n ' ": 3529,
      "and then ": 3530,
      "lie ": 3531,
      "in love ": 3532,
      "in bed ": 3533,
      "oods ": 3534,
      "? '\n ' E": 3535,
      "? '\n ' Actually ": 3536,
      "stry ": 3537,
      "ride ": 3538,
      "for this ": 3539,
      "for our ": 3540,
      "for us ": 3541,
      "attr": 3542,
      "that they ": 3543,
      "ica ": 3544,
      "['S": 3545,
      "['We ": 3546,
      "['Can you ": 3547,
      "bed": 3548,
      "become ": 3549,
      "begin ": 3550,
      "ache ": 3551,
      "accoun": 3552,
      ". I need ": 3553,
      ". I remember ": 3554,
      "ould I ": 3555,
      "near": 3556,
      "nel ": 3557,
      "near ": 3558,
      ". \"\n ' But ": 3559,
      ". \"\n ' The ": 3560,
      ". \"\n ' And ": 3561,
      "sign": 3562,
      "shor": 3563,
      ". \"\n \" What ": 3564,
      "dio ": 3565,
      ". '\n \" Thank you ": 3566,
      ". '\n \" Let's ": 3567,
      "chi": 3568,
      "ched ": 3569,
      "choose ": 3570,
      ", I was ": 3571,
      ", I ’ ll ": 3572,
      "? '\n \" Well , ": 3573,
      "lets ": 3574,
      "whe": 3575,
      "this afternoon ": 3576,
      "ral ": 3577,
      "? It ": 3578,
      "? The ": 3579,
      "esti": 3580,
      "all that ": 3581,
      "all day ": 3582,
      "think so ": 3583,
      "know that ": 3584,
      "know where ": 3585,
      ". There's ": 3586,
      "word ": 3587,
      "unity ": 3588,
      "unately ": 3589,
      "meters ": 3590,
      "medicine ": 3591,
      "get up ": 3592,
      "ts of ": 3593,
      "spo": 3594,
      "was your ": 3595,
      "there ’ s ": 3596,
      "pped ": 3597,
      "must": 3598,
      "? ' ' No ": 3599,
      "? ' ' It ": 3600,
      "prove ": 3601,
      "deta": 3602,
      "adam ": 3603,
      "quit ": 3604,
      "view": 3605,
      "cover ": 3606,
      "really good ": 3607,
      "cap": 3608,
      ", and then ": 3609,
      ". Al": 3610,
      "too expensive ": 3611,
      "going on ": 3612,
      "tech": 3613,
      "confi": 3614,
      "dog ": 3615,
      "door ": 3616,
      "come to ": 3617,
      "mb ": 3618,
      "join ": 3619,
      "fault ": 3620,
      ". You should ": 3621,
      "box": 3622,
      "nose ": 3623,
      "note ": 3624,
      "due ": 3625,
      "cannot ": 3626,
      "lum": 3627,
      "two weeks ": 3628,
      "web": 3629,
      "well-": 3630,
      "him to ": 3631,
      "a lar": 3632,
      "great ! ": 3633,
      "['Hey ": 3634,
      "when he ": 3635,
      ". We can ": 3636,
      "rules ": 3637,
      "courses ": 3638,
      "counter": 3639,
      "had to ": 3640,
      "is a good ": 3641,
      "Is that ": 3642,
      "find it ": 3643,
      "! I ’ m ": 3644,
      "down the ": 3645,
      "head": 3646,
      "I'd like ": 3647,
      "andals ": 3648,
      "services ": 3649,
      "yes , ": 3650,
      "looking for a ": 3651,
      "pizz": 3652,
      "Can I help you ": 3653,
      "kept ": 3654,
      "each other ": 3655,
      ". Be": 3656,
      "written ": 3657,
      "invol": 3658,
      "? '\n ' Yes , I have ": 3659,
      "all the time ": 3660,
      "anymore ": 3661,
      "set up ": 3662,
      "salary ": 3663,
      "very much . ']": 3664,
      "decided ": 3665,
      "charac": 3666,
      "wants ": 3667,
      ". If you ": 3668,
      ", Mr . S": 3669,
      "! \" ' ": 3670,
      "avo": 3671,
      ". '\n ' But I ": 3672,
      "played ": 3673,
      "every day ": 3674,
      "doesn ’ t ": 3675,
      "ther's ": 3676,
      "outside ": 3677,
      "Street ": 3678,
      ". Goodbye ": 3679,
      "books ": 3680,
      "monthly ": 3681,
      "Bob ": 3682,
      "Perhaps ": 3683,
      "downlo": 3684,
      "street ": 3685,
      "shall we ": 3686,
      "accept ": 3687,
      "program ": 3688,
      "' s ": 3689,
      ". Re": 3690,
      "transfer ": 3691,
      "planning on ": 3692,
      "Professor ": 3693,
      "skills ": 3694,
      "most important thing ": 3695,
      "stric": 3696,
      "holiday ": 3697,
      "wearing ": 3698,
      "accident ": 3699,
      "convenient ": 3700,
      "equipment ": 3701,
      "useful ": 3702,
      "enjoyed ": 3703,
      "cafeteria ": 3704,
      "literature ": 3705,
      "celebrate ": 3706,
      "blocks ": 3707,
      "onderful ": 3708,
      "\"\n ' ": 3709,
      "( ": 3710,
      "/ ": 3711,
      "17": 3712,
      "30": 3713,
      ":: ": 3714,
      "Air": 3715,
      "Bru": 3716,
      "By the way ": 3717,
      "Can": 3718,
      "Dis": 3719,
      "First ": 3720,
      "Jim ": 3721,
      "James ": 3722,
      "June ": 3723,
      "May ": 3724,
      "Mary ": 3725,
      "Our ": 3726,
      "Paci": 3727,
      "Sounds ": 3728,
      "Ton": 3729,
      "Uni": 3730,
      "ath": 3731,
      "ati": 3732,
      "ams ": 3733,
      "ban": 3734,
      "bet ": 3735,
      "blo": 3736,
      "cing ": 3737,
      "cle ": 3738,
      "cent ": 3739,
      "cal": 3740,
      "cla": 3741,
      "cks ": 3742,
      "clear": 3743,
      "ctually ": 3744,
      "da ": 3745,
      "den ": 3746,
      "double ": 3747,
      "ele": 3748,
      "fer": 3749,
      "fle": 3750,
      "fantastic ": 3751,
      "gain ": 3752,
      "gni": 3753,
      "hand ": 3754,
      "home": 3755,
      "hands ": 3756,
      "mas ": 3757,
      "nis ": 3758,
      "nal ": 3759,
      "nerv": 3760,
      "oo ": 3761,
      "pea": 3762,
      "pack ": 3763,
      "rac": 3764,
      "rate ": 3765,
      "sm": 3766,
      "sk ": 3767,
      "squ": 3768,
      "smi": 3769,
      "slow ": 3770,
      "saying ": 3771,
      "t.": 3772,
      "tat": 3773,
      "tle ": 3774,
      "tour ": 3775,
      "teach ": 3776,
      "tments ": 3777,
      "uch ": 3778,
      "xi": 3779,
      "s are ": 3780,
      "thre": 3781,
      "outh ": 3782,
      "insp": 3783,
      "eri": 3784,
      "ert ": 3785,
      "ered ": 3786,
      ", D": 3787,
      ", P": 3788,
      ", S": 3789,
      ", d": 3790,
      ", like ": 3791,
      ", no ": 3792,
      ", doctor ": 3793,
      ", such as ": 3794,
      "I really ": 3795,
      "I could ": 3796,
      "ory ": 3797,
      "order": 3798,
      "you in ": 3799,
      "you like ": 3800,
      "the company ": 3801,
      "the most ": 3802,
      "to us ": 3803,
      "to hear that ": 3804,
      "to London ": 3805,
      "ards ": 3806,
      "a number ": 3807,
      "requi": 3808,
      "reserve ": 3809,
      ". '\n ' Oh , I ": 3810,
      ". '\n ' Really ? ": 3811,
      "owever ": 3812,
      "tight ": 3813,
      "on that ": 3814,
      "it . \"]": 3815,
      "lives ": 3816,
      "in that ": 3817,
      "? '\n ' Yeah ": 3818,
      "str": 3819,
      "sty ": 3820,
      "sten ": 3821,
      "stru": 3822,
      "rity ": 3823,
      "have my ": 3824,
      "['A": 3825,
      "['Would you ": 3826,
      "across ": 3827,
      "according ": 3828,
      ". I would ": 3829,
      ". I have to ": 3830,
      ". I ’ d ": 3831,
      ". \"\n ' Why ": 3832,
      ". \"\n ' OK ": 3833,
      ". \"\n ' So ": 3834,
      "seven ": 3835,
      "selec": 3836,
      "do they ": 3837,
      "do something ": 3838,
      "sident ": 3839,
      "super": 3840,
      "summer ": 3841,
      ". \"\n \" I don't ": 3842,
      "can we ": 3843,
      ". '\n \" But ": 3844,
      ". '\n \" I'm sorry ": 3845,
      ". '\n \" I'm afraid ": 3846,
      "main": 3847,
      "? '\n \" H": 3848,
      "? '\n \" I'm sorry ": 3849,
      "with him ": 3850,
      "! And ": 3851,
      "toil": 3852,
      "ite": 3853,
      "so . ']": 3854,
      "so many ": 3855,
      "will do ": 3856,
      "will get ": 3857,
      "works ": 3858,
      "logy ": 3859,
      "meat ": 3860,
      "earth ": 3861,
      "go out ": 3862,
      "formal ": 3863,
      "spe": 3864,
      "How about ": 3865,
      "here for ": 3866,
      "lation ": 3867,
      "mode": 3868,
      "depar": 3869,
      "good at ": 3870,
      "hire ": 3871,
      "hibi": 3872,
      "add ": 3873,
      "advi": 3874,
      "am I ": 3875,
      "time . ']": 3876,
      "? \"\n \" I don't know ": 3877,
      "com ": 3878,
      "costs ": 3879,
      "pos": 3880,
      "post ": 3881,
      "casual ": 3882,
      "want a ": 3883,
      ". As ": 3884,
      "take care ": 3885,
      "fif": 3886,
      "fix ": 3887,
      "condi": 3888,
      "connec": 3889,
      "? '\n ' I have ": 3890,
      "? '\n ' I want to ": 3891,
      "docu": 3892,
      "use the ": 3893,
      "have a good ": 3894,
      "come on ": 3895,
      "come back ": 3896,
      "come over ": 3897,
      "fashi": 3898,
      "That ’ s ": 3899,
      "got the ": 3900,
      "got to ": 3901,
      "notic": 3902,
      "given ": 3903,
      "giving ": 3904,
      "ything else ": 3905,
      "two years ": 3906,
      "! '\n ' I ": 3907,
      "by the ": 3908,
      "we're ": 3909,
      "we've ": 3910,
      ". But the ": 3911,
      "going to have to ": 3912,
      "I've never ": 3913,
      "ests ": 3914,
      "prize ": 3915,
      "sof": 3916,
      "sold ": 3917,
      ". We have ": 3918,
      ". We will ": 3919,
      "rooms ": 3920,
      "roomm": 3921,
      "train ": 3922,
      ", you should ": 3923,
      ". '\n ' What kind of ": 3924,
      "pain ": 3925,
      ", there's ": 3926,
      ", please . ' ' ": 3927,
      "ellow ": 3928,
      ". I'm not ": 3929,
      "a brea": 3930,
      "Good morning ": 3931,
      "bran": 3932,
      "most of the ": 3933,
      ". Look ": 3934,
      ". '\n ' Will ": 3935,
      "? ' \" It's ": 3936,
      "ort of ": 3937,
      "say that ": 3938,
      "usan ": 3939,
      "don ’ t think ": 3940,
      "didn't you ": 3941,
      "expect ": 3942,
      "love to ": 3943,
      "corner ": 3944,
      ". Do you have any ": 3945,
      "reali": 3946,
      "learning ": 3947,
      "['What do you think ": 3948,
      "who are ": 3949,
      ". ' \" That's ": 3950,
      "tennis ": 3951,
      "tomorrow morning ": 3952,
      "match ": 3953,
      "wait until ": 3954,
      "'ve been ": 3955,
      "sounds good ": 3956,
      "winter ": 3957,
      "passed ": 3958,
      ". '\n ' Do you have any ": 3959,
      "’ d like to ": 3960,
      "girl": 3961,
      "[\"Hello ": 3962,
      "[\"Hi , ": 3963,
      "soon as ": 3964,
      ". Here you are ": 3965,
      ". You'll ": 3966,
      "broke ": 3967,
      "broken ": 3968,
      "went to ": 3969,
      "talk to ": 3970,
      "experien": 3971,
      "give you a ": 3972,
      "having a ": 3973,
      ". '\n ' Ok ": 3974,
      "e-mail ": 3975,
      "energy ": 3976,
      ". What's the ": 3977,
      "honest ": 3978,
      ". For ": 3979,
      "receive ": 3980,
      "received ": 3981,
      ". Every": 3982,
      ". '\n ' Sounds ": 3983,
      "We're ": 3984,
      "Here you are ": 3985,
      "hurt ": 3986,
      "hurry ": 3987,
      "ackage ": 3988,
      ". Would you like to ": 3989,
      "customer ": 3990,
      "customers ": 3991,
      "boring ": 3992,
      "clean": 3993,
      "delicious ": 3994,
      ". '\n ' I ’ m sorry ": 3995,
      "souven": 3996,
      "won ’ t be ": 3997,
      ". Can I help you ": 3998,
      "reason ": 3999,
      "sense ": 4000,
      "stration ": 4001,
      "a long time ": 4002,
      "healthy ": 4003,
      "advertise": 4004,
      "consider ": 4005,
      "crazy ": 4006,
      "swimming ": 4007,
      "necess": 4008,
      "credit card ": 4009,
      "etc ": 4010,
      "contin": 4011,
      "Olympic ": 4012,
      "touch ": 4013,
      "assist": 4014,
      "painting ": 4015,
      "Hotel ": 4016,
      "older ": 4017,
      "complicated ": 4018,
      "listen to ": 4019,
      "employe": 4020,
      "organiz": 4021,
      "afford ": 4022,
      ". Let ’ s go ": 4023,
      "piece of ": 4024,
      "discuss ": 4025,
      "impression ": 4026,
      "Christmas ": 4027,
      "July ": 4028,
      "popular ": 4029,
      "helpful ": 4030,
      "application ": 4031,
      "magazine ": 4032,
      "gonna ": 4033,
      "science ": 4034,
      "develop": 4035,
      "bathroom ": 4036,
      "successful ": 4037,
      "apologize ": 4038,
      "woman ": 4039,
      "resume ": 4040,
      "whether ": 4041,
      "Bruce ": 4042,
      "Pacific ": 4043,
      "nervous ": 4044,
      "toilet ": 4045,
      "roommate ": 4046,
      "9 ": 4047,
      "Ban": 4048,
      "Bri": 4049,
      "Bill ": 4050,
      "Eu": 4051,
      "Fi": 4052,
      "G ": 4053,
      "Ger": 4054,
      "Give ": 4055,
      "God ": 4056,
      "IB ": 4057,
      "Jap": 4058,
      "K ": 4059,
      "L ": 4060,
      "Lu": 4061,
      "O ": 4062,
      "Ok , ": 4063,
      "Pu": 4064,
      "Re": 4065,
      "Ro": 4066,
      "RIB ": 4067,
      "Sh": 4068,
      "Some ": 4069,
      "Ste": 4070,
      "Stu": 4071,
      "Ti": 4072,
      "Tu": 4073,
      "Welcome ": 4074,
      "Wait ": 4075,
      "Yes.": 4076,
      "aa": 4077,
      "ase ": 4078,
      "bar": 4079,
      "bar ": 4080,
      "beach ": 4081,
      "co ": 4082,
      "cell ": 4083,
      "cir": 4084,
      "d-": 4085,
      "dly ": 4086,
      "dry ": 4087,
      "edi": 4088,
      "gy": 4089,
      "gro": 4090,
      "gate ": 4091,
      "goods ": 4092,
      "hor": 4093,
      "horr": 4094,
      "ky": 4095,
      "ky ": 4096,
      "low": 4097,
      "lome": 4098,
      "lend ": 4099,
      "moun": 4100,
      "mach": 4101,
      "mouth ": 4102,
      "nly ": 4103,
      "o-": 4104,
      "og": 4105,
      "oh ": 4106,
      "ost ": 4107,
      "opp": 4108,
      "pes ": 4109,
      "pat": 4110,
      "pay": 4111,
      "package ": 4112,
      "ror ": 4113,
      "sli": 4114,
      "scor": 4115,
      "tre": 4116,
      "tow": 4117,
      "tto": 4118,
      "tree ": 4119,
      "twork ": 4120,
      "umb": 4121,
      "vate ": 4122,
      "ved in ": 4123,
      "vity ": 4124,
      "wall ": 4125,
      "wine ": 4126,
      "ys": 4127,
      "yer ": 4128,
      "y's ": 4129,
      " ']": 4130,
      "thea": 4131,
      "oup ": 4132,
      "in-": 4133,
      "inte": 4134,
      "indu": 4135,
      "ingre": 4136,
      ". Good ": 4137,
      ". Did you ": 4138,
      ". I'd like to ": 4139,
      ". m . ": 4140,
      " ' Ve ": 4141,
      "ancing ": 4142,
      ", A": 4143,
      ", for ": 4144,
      ", with ": 4145,
      ", our ": 4146,
      ", you'll ": 4147,
      "I need to ": 4148,
      "I ’ d ": 4149,
      "ord": 4150,
      "ordin": 4151,
      "you get ": 4152,
      "you need to ": 4153,
      "you ’ ll ": 4154,
      "you might ": 4155,
      "ller ": 4156,
      "hair ": 4157,
      "the one ": 4158,
      "the room ": 4159,
      "the problem ": 4160,
      "the car ": 4161,
      "to our ": 4162,
      "to come ": 4163,
      "to learn ": 4164,
      "to send ": 4165,
      "ing and ": 4166,
      "area ": 4167,
      "a year ": 4168,
      "a movie ": 4169,
      "reli": 4170,
      "regi": 4171,
      "recor": 4172,
      "is an ": 4173,
      "is our ": 4174,
      ". '\n ' T": 4175,
      ". '\n ' Not ": 4176,
      ". '\n ' Can I ": 4177,
      ". '\n ' Yeah ": 4178,
      ". '\n ' OK , ": 4179,
      ". '\n ' Maybe ": 4180,
      ". '\n ' No problem ": 4181,
      ". '\n ' Could you ": 4182,
      ". '\n ' Very ": 4183,
      "me the ": 4184,
      "tire": 4185,
      "tici": 4186,
      "on our ": 4187,
      "it . \"\n ' ": 4188,
      "it . ']": 4189,
      "it for you ": 4190,
      "and my ": 4191,
      "likes ": 4192,
      "in English ": 4193,
      "in China ": 4194,
      "in New York ": 4195,
      "oom ": 4196,
      "? '\n ' H": 4197,
      "? '\n ' M": 4198,
      "? '\n ' Just ": 4199,
      "? '\n ' Yeah , ": 4200,
      "? '\n ' A ": 4201,
      "of all ": 4202,
      "wide ": 4203,
      "willing ": 4204,
      "for an ": 4205,
      "for one ": 4206,
      "for each ": 4207,
      "have it ": 4208,
      "have an ": 4209,
      "attend ": 4210,
      "that you are ": 4211,
      "that she ": 4212,
      "that you can ": 4213,
      "['So ": 4214,
      "are we ": 4215,
      "are going ": 4216,
      ". I have a ": 4217,
      ". I love ": 4218,
      ". I can ’ t ": 4219,
      ". I like the ": 4220,
      "ghtly ": 4221,
      "ould I have ": 4222,
      "th floor ": 4223,
      "ney": 4224,
      "roll ": 4225,
      "roses ": 4226,
      ". \"\n ' I have ": 4227,
      ". \"\n ' Then ": 4228,
      ". \"\n ' Really ? ": 4229,
      "abor": 4230,
      "sea ": 4231,
      "sell ": 4232,
      "sett": 4233,
      "sil": 4234,
      "simpl": 4235,
      "shy ": 4236,
      "shir": 4237,
      "shows ": 4238,
      "sugg": 4239,
      "your luggage ": 4240,
      "your favorite ": 4241,
      "tax ": 4242,
      ". \"\n \" You": 4243,
      ". \"\n \" No ": 4244,
      ". \"\n \" It ": 4245,
      ". \"\n \" Don't ": 4246,
      ". \"\n \" Don't worry ": 4247,
      "died ": 4248,
      "dients ": 4249,
      "dishes ": 4250,
      "allow ": 4251,
      ". '\n \" I'm ": 4252,
      ". '\n \" I'll ": 4253,
      ". '\n \" I think ": 4254,
      ". '\n \" You're ": 4255,
      ". '\n \" Sorry ": 4256,
      ". '\n \" What's the ": 4257,
      "mad ": 4258,
      "chur": 4259,
      "chess ": 4260,
      "chest ": 4261,
      ", I ’ m ": 4262,
      ", I didn't ": 4263,
      "like this ": 4264,
      "we need to ": 4265,
      "? '\n \" Oh , ": 4266,
      "! Do you ": 4267,
      "top": 4268,
      "one is ": 4269,
      "one day ": 4270,
      "alo": 4271,
      "alance ": 4272,
      "this year ": 4273,
      "radio ": 4274,
      "so , ": 4275,
      "? Do you ": 4276,
      "esday ": 4277,
      "all of the ": 4278,
      "ects ": 4279,
      "know , ": 4280,
      "day after ": 4281,
      "again": 4282,
      ". They": 4283,
      "work": 4284,
      "located ": 4285,
      "lots of ": 4286,
      "extr": 4287,
      "exce": 4288,
      "exam": 4289,
      ". Wait ": 4290,
      "get you ": 4291,
      "get my ": 4292,
      "not be ": 4293,
      "very kind of ": 4294,
      "? ' ' The ": 4295,
      "? ' ' I ’ m ": 4296,
      "? ' ' Of course ": 4297,
      ". ' ' Thanks ": 4298,
      "laun": 4299,
      ", but I think ": 4300,
      "just a ": 4301,
      "bud": 4302,
      "buil": 4303,
      "buying ": 4304,
      "up , ": 4305,
      "up and ": 4306,
      "up with ": 4307,
      "good news ": 4308,
      "hie": 4309,
      "he ’ s ": 4310,
      "in the su": 4311,
      "time , ": 4312,
      "time I ": 4313,
      "que ": 4314,
      "[\"Let's ": 4315,
      "? \"\n \" Yes ": 4316,
      "? \"\n \" I'm ": 4317,
      "? \"\n \" Just ": 4318,
      "vision ": 4319,
      "some time ": 4320,
      "cover": 4321,
      "colum": 4322,
      "really ? ": 4323,
      "poin": 4324,
      "pose ": 4325,
      "potat": 4326,
      "want me to ": 4327,
      "save ": 4328,
      "sation ": 4329,
      "parties ": 4330,
      "take your ": 4331,
      "take them ": 4332,
      "too bad ": 4333,
      ". '\n ' I really ": 4334,
      ". '\n ' I ’ ll ": 4335,
      "tests ": 4336,
      "conom": 4337,
      "confir": 4338,
      "? \"\n ' Well , ": 4339,
      "dozen ": 4340,
      "from your ": 4341,
      "from my ": 4342,
      "from here ": 4343,
      "perfor": 4344,
      "trust ": 4345,
      "omething ": 4346,
      "end of ": 4347,
      "press ": 4348,
      "have a try ": 4349,
      "tware ": 4350,
      "twenty ": 4351,
      "gues ": 4352,
      "guests ": 4353,
      "way to ": 4354,
      ". Some ": 4355,
      ". Sometimes ": 4356,
      "how many ": 4357,
      "carr": 4358,
      "faster ": 4359,
      "botto": 4360,
      "notes ": 4361,
      "gift ": 4362,
      "make an appointment ": 4363,
      "have to pay ": 4364,
      "cance": 4365,
      "tical ": 4366,
      "Can I have ": 4367,
      "bile ": 4368,
      "bilities ": 4369,
      ". But I think ": 4370,
      "international ": 4371,
      "internet ": 4372,
      "['Hey , ": 4373,
      "when I was ": 4374,
      "... '\n ' ": 4375,
      ", you will ": 4376,
      "venue ": 4377,
      ", please ? ' ' ": 4378,
      "kind ": 4379,
      ". I'm sure ": 4380,
      ", Mary ": 4381,
      "last year ": 4382,
      "try to ": 4383,
      "try it on ": 4384,
      "were you ": 4385,
      "over the ": 4386,
      "Is this ": 4387,
      "kilome": 4388,
      ". I'll go ": 4389,
      "find out ": 4390,
      "['I ’ m ": 4391,
      ". '\n ' Wait ": 4392,
      "heavy ": 4393,
      "nice to meet you ": 4394,
      "next Monday ": 4395,
      ". How about ": 4396,
      ". How about you ": 4397,
      "cream ": 4398,
      "I can ’ t ": 4399,
      "don ’ t you ": 4400,
      "you can get ": 4401,
      "correct ": 4402,
      "house": 4403,
      "houses ": 4404,
      "again . \"]": 4405,
      ". They will ": 4406,
      "lately ": 4407,
      "pull ": 4408,
      "check out ": 4409,
      "pie ": 4410,
      "put it ": 4411,
      "keting ": 4412,
      "wards ": 4413,
      "might be ": 4414,
      "supplies ": 4415,
      ". I think the ": 4416,
      "invest": 4417,
      "? '\n ' Yes , I do ": 4418,
      "? '\n ' Yes , I am ": 4419,
      "jump": 4420,
      "'d be ": 4421,
      "Now , ": 4422,
      "heart ": 4423,
      "said it ": 4424,
      "immedi": 4425,
      "does the ": 4426,
      "manage ": 4427,
      "eye ": 4428,
      "yours ": 4429,
      "drin": 4430,
      "the reason ": 4431,
      "present ": 4432,
      "believe that ": 4433,
      "teacher ": 4434,
      "[\"Hey ": 4435,
      "seats ": 4436,
      "season ": 4437,
      "enjoy the ": 4438,
      "overtime ": 4439,
      "Mr . Smith ": 4440,
      "every month ": 4441,
      "is very good ": 4442,
      "events ": 4443,
      "a small ": 4444,
      "look at that ": 4445,
      "everybody ": 4446,
      "coura": 4447,
      "often do you ": 4448,
      "Lily ": 4449,
      "listening ": 4450,
      "terrific ": 4451,
      "green ": 4452,
      "States ": 4453,
      "apply ": 4454,
      ". First ": 4455,
      "angry ": 4456,
      "? '\n ' No , thanks ": 4457,
      "['May I ": 4458,
      "advance ": 4459,
      "favor ": 4460,
      "careful ": 4461,
      "eggs ": 4462,
      "known ": 4463,
      "thinking about ": 4464,
      "Person": 4465,
      "draft ": 4466,
      "downtown ": 4467,
      "fund ": 4468,
      "funny ": 4469,
      "large ": 4470,
      "promise ": 4471,
      "supposed to be ": 4472,
      "Besides ": 4473,
      "current ": 4474,
      "menu ": 4475,
      "stress ": 4476,
      "major": 4477,
      "management ": 4478,
      "garett": 4479,
      "human ": 4480,
      "200": 4481,
      "factors ": 4482,
      "here.": 4483,
      "scary ": 4484,
      "half an hour ": 4485,
      "distance ": 4486,
      "type of ": 4487,
      "economy ": 4488,
      "Olympics ": 4489,
      "Have you ever ": 4490,
      "football ": 4491,
      "lot of ": 4492,
      "ty-five ": 4493,
      "Mike ": 4494,
      "purcha": 4495,
      "camera ": 4496,
      "truth ": 4497,
      "About ": 4498,
      "sical music ": 4499,
      "instead of ": 4500,
      "beginning ": 4501,
      "fortunately ": 4502,
      "amazing ": 4503,
      "daughter ": 4504,
      "results ": 4505,
      "standing ": 4506,
      "explain ": 4507,
      "figure ": 4508,
      "holding ": 4509,
      "Sunday ": 4510,
      "cup of ": 4511,
      "drugs ": 4512,
      "further ": 4513,
      "arrange": 4514,
      "disapp": 4515,
      "pleasant ": 4516,
      "sources ": 4517,
      "techno": 4518,
      "a large ": 4519,
      "headache ": 4520,
      "Disney": 4521,
      "University ": 4522,
      "inspection ": 4523,
      "software ": 4524,
      "girlfriend ": 4525,
      "souvenirs ": 4526,
      "employees ": 4527,
      "Euro": 4528,
      "Tuesday ": 4529,
      "horror ": 4530,
      "machine ": 4531,
      "opport": 4532,
      "ingredients ": 4533,
      "simply ": 4534,
      "sugges": 4535,
      "church ": 4536,
      "example ": 4537,
      "potatoes ": 4538,
      "bottom ": 4539,
      "cancel ": 4540,
      ") ": 4541,
      "-in-": 4542,
      ".Do you ": 4543,
      "18": 4544,
      "14 ": 4545,
      "300 ": 4546,
      "40 ": 4547,
      "50": 4548,
      "55": 4549,
      "Avenue ": 4550,
      "Bra": 4551,
      "BA ": 4552,
      "Co": 4553,
      "City ": 4554,
      "Don": 4555,
      "Day ": 4556,
      "Fr": 4557,
      "Gr": 4558,
      "Hel": 4559,
      "Isn't ": 4560,
      "Jack ": 4561,
      "La": 4562,
      "Lin": 4563,
      "Mr.": 4564,
      "Mrs ": 4565,
      "Never ": 4566,
      "NT ": 4567,
      "Or ": 4568,
      "Pre": 4569,
      "Plu": 4570,
      "R ": 4571,
      "Rose ": 4572,
      "Room ": 4573,
      "Si": 4574,
      "Tran": 4575,
      "U ": 4576,
      "Wor": 4577,
      "ap ": 4578,
      "apar": 4579,
      "ais": 4580,
      "apart ": 4581,
      "ben": 4582,
      "b , ": 4583,
      "band": 4584,
      "cook ": 4585,
      "cents ": 4586,
      "dn't ": 4587,
      "dence ": 4588,
      "dates ": 4589,
      "egg": 4590,
      "fli": 4591,
      "fly ": 4592,
      "fec": 4593,
      "four": 4594,
      "fever ": 4595,
      "gry ": 4596,
      "gical ": 4597,
      "hood ": 4598,
      "ior ": 4599,
      "k.": 4600,
      "lou": 4601,
      "land": 4602,
      "lower ": 4603,
      "mo ": 4604,
      "mac": 4605,
      "mir": 4606,
      "mm , ": 4607,
      "nic ": 4608,
      "os ": 4609,
      "ove ": 4610,
      "pany ": 4611,
      "proo": 4612,
      "power ": 4613,
      "pply ": 4614,
      "ran ": 4615,
      "ser ": 4616,
      "sday ": 4617,
      "sca": 4618,
      "ssing ": 4619,
      "swea": 4620,
      "sort of ": 4621,
      "tar": 4622,
      "too": 4623,
      "tant ": 4624,
      "tough ": 4625,
      "wer ": 4626,
      "wood ": 4627,
      "wra": 4628,
      "— ": 4629,
      "t to ": 4630,
      "s Pacific ": 4631,
      "thro": 4632,
      "insi": 4633,
      "insu": 4634,
      "inten": 4635,
      "infla": 4636,
      "d , ": 4637,
      ". Yes , ": 4638,
      ". I'd ": 4639,
      ". You're ": 4640,
      ". Don't ": 4641,
      ". Don ’ t ": 4642,
      ". Does ": 4643,
      ". People ": 4644,
      "er's ": 4645,
      "ann": 4646,
      "ants ": 4647,
      "anese ": 4648,
      "ancy ": 4649,
      "anced ": 4650,
      ", re": 4651,
      ", if ": 4652,
      ", why ": 4653,
      ", they are ": 4654,
      ", etc ": 4655,
      "I know ": 4656,
      "I have a ": 4657,
      "I want to ": 4658,
      "you do ": 4659,
      "you see ": 4660,
      "you want to ": 4661,
      "you say ": 4662,
      "half": 4663,
      "the new ": 4664,
      "ense ": 4665,
      "ended ": 4666,
      "envir": 4667,
      "to put ": 4668,
      "to start ": 4669,
      "to share ": 4670,
      "arding ": 4671,
      "a problem ": 4672,
      "a week ": 4673,
      "a month ": 4674,
      "a second ": 4675,
      "a mistake ": 4676,
      "rever": 4677,
      "reco": 4678,
      "reduc": 4679,
      "is good ": 4680,
      "is on the ": 4681,
      "is also ": 4682,
      "is coming ": 4683,
      ". '\n ' C": 4684,
      ". '\n ' G": 4685,
      ". '\n ' what ": 4686,
      ". '\n ' My ": 4687,
      ". '\n ' This ": 4688,
      ". '\n ' Then ": 4689,
      ". '\n ' There ": 4690,
      ". '\n ' Which ": 4691,
      "es and ": 4692,
      "at 1": 4693,
      "at my ": 4694,
      "at work ": 4695,
      "ed on the ": 4696,
      "on TV ": 4697,
      "it , ": 4698,
      "it the ": 4699,
      "it a ": 4700,
      "it and ": 4701,
      "it up ": 4702,
      "it has ": 4703,
      "it is a ": 4704,
      "it would be ": 4705,
      "it does ": 4706,
      "it easy ": 4707,
      "it wasn't ": 4708,
      "and get ": 4709,
      "lier ": 4710,
      "in S": 4711,
      "in time ": 4712,
      "in America ": 4713,
      "? '\n ' Th": 4714,
      "? '\n ' Do you ": 4715,
      "? '\n ' They ": 4716,
      "sting ": 4717,
      "stat": 4718,
      "stood ": 4719,
      "sters ": 4720,
      "star ": 4721,
      "of me ": 4722,
      "of those ": 4723,
      "for him ": 4724,
      "for dinner ": 4725,
      "ay I have ": 4726,
      "that be ": 4727,
      "that he ": 4728,
      "ich": 4729,
      "ic , ": 4730,
      "ichard ": 4731,
      "['Where ": 4732,
      "['Could you ": 4733,
      "are going to ": 4734,
      "active ": 4735,
      "achie": 4736,
      ". I like ": 4737,
      ". I could ": 4738,
      ". I didn't ": 4739,
      ". I feel ": 4740,
      ". I would like to ": 4741,
      ". I couldn't ": 4742,
      "be so ": 4743,
      "neck ": 4744,
      "network ": 4745,
      ". \"\n ' H": 4746,
      ". \"\n ' Good ": 4747,
      ". \"\n ' OK , ": 4748,
      ". \"\n ' Maybe ": 4749,
      "absolutely ": 4750,
      "do some ": 4751,
      "sit": 4752,
      "sites ": 4753,
      "sitting ": 4754,
      "shou": 4755,
      "shower ": 4756,
      "sue ": 4757,
      "suits ": 4758,
      "supply ": 4759,
      ". \"\n \" Yes , ": 4760,
      ". \"\n \" Thank you ": 4761,
      ". \"\n \" If ": 4762,
      ". \"\n \" Then ": 4763,
      ". \"\n \" Maybe ": 4764,
      ". \"\n \" Why don't you ": 4765,
      "versation ": 4766,
      "as it ": 4767,
      "as an ": 4768,
      "as your ": 4769,
      "as soon as ": 4770,
      "now . ']": 4771,
      ". '\n \" That ": 4772,
      ". '\n \" Don't ": 4773,
      ". '\n \" Oh , I ": 4774,
      "ches ": 4775,
      "my best ": 4776,
      "my mind ": 4777,
      ", I would ": 4778,
      "like you ": 4779,
      "we do ": 4780,
      "we have to ": 4781,
      "we ’ ll ": 4782,
      "? '\n \" I think ": 4783,
      "les": 4784,
      "ledge ": 4785,
      "! It's ": 4786,
      "! We ": 4787,
      "! Don't ": 4788,
      "! Are you ": 4789,
      "total ": 4790,
      "totally ": 4791,
      "one in ": 4792,
      "one thing ": 4793,
      "white ": 4794,
      "alty ": 4795,
      "this way ": 4796,
      "itself ": 4797,
      "raise ": 4798,
      "so I ": 4799,
      "? I'm ": 4800,
      "? How ": 4801,
      "? If ": 4802,
      "about him ": 4803,
      "elt ": 4804,
      "all these ": 4805,
      "ecu": 4806,
      "ecting ": 4807,
      "think it ": 4808,
      "worse ": 4809,
      "any more ": 4810,
      "any other ": 4811,
      ". It": 4812,
      "logical ": 4813,
      "excellent ": 4814,
      ". Will ": 4815,
      "get that ": 4816,
      "get more ": 4817,
      "get them ": 4818,
      "go there ": 4819,
      "very expensive ": 4820,
      "was very ": 4821,
      "there was ": 4822,
      "mur": 4823,
      "? ' ' My ": 4824,
      "? ' ' About ": 4825,
      ". ' ' Why ": 4826,
      "law": 4827,
      "lady ": 4828,
      "mod": 4829,
      "moon ": 4830,
      "mobile ": 4831,
      ", but the ": 4832,
      ", but he ": 4833,
      "just the ": 4834,
      "morn": 4835,
      "proc": 4836,
      "proper": 4837,
      "project ": 4838,
      "up a ": 4839,
      "hi , ": 4840,
      "he can ": 4841,
      "time you ": 4842,
      "ques ": 4843,
      "[\"The ": 4844,
      "[\"Good ": 4845,
      "[\"I'm sorry ": 4846,
      "[\"I'd like to ": 4847,
      "? \"\n \" No ": 4848,
      "vis": 4849,
      "miles ": 4850,
      "pol": 4851,
      "pop ": 4852,
      "caught ": 4853,
      "urgent ": 4854,
      "want the ": 4855,
      "see you ": 4856,
      "see what ": 4857,
      ", and it ": 4858,
      ", and we ": 4859,
      "sau": 4860,
      ". Actually ": 4861,
      "part-": 4862,
      "contest ": 4863,
      "conversation ": 4864,
      "? '\n ' I was ": 4865,
      "? \"\n ' Yes , ": 4866,
      "? \"\n ' No ": 4867,
      "? \"\n ' Yes , I ": 4868,
      "dogs ": 4869,
      "percent ": 4870,
      "perfec": 4871,
      "they can ": 4872,
      "hot": 4873,
      "mini": 4874,
      ". Here's ": 4875,
      "two-": 4876,
      "been to ": 4877,
      "guide ": 4878,
      "helps ": 4879,
      "how long ": 4880,
      "carry ": 4881,
      "fair ": 4882,
      ". You ’ re ": 4883,
      "boy": 4884,
      "box ": 4885,
      "cigarett": 4886,
      ". It is ": 4887,
      ". It will be ": 4888,
      ". It seems ": 4889,
      "have to wait ": 4890,
      "want to go ": 4891,
      "work out ": 4892,
      "lue ": 4893,
      "Chan": 4894,
      "tically ": 4895,
      "! '\n ' Oh , ": 4896,
      "by your ": 4897,
      "people will ": 4898,
      "interview": 4899,
      "private ": 4900,
      ". What do you think ": 4901,
      ". What can I do for you ": 4902,
      ". We should ": 4903,
      "at the airport ": 4904,
      "trav": 4905,
      "rush ": 4906,
      "tell him ": 4907,
      "paper": 4908,
      ". \" ' How ": 4909,
      ". \" ' Thank you ": 4910,
      ". \" ' OK ": 4911,
      "counter ": 4912,
      "for the first ": 4913,
      "you are right ": 4914,
      ". The only ": 4915,
      "brand ": 4916,
      "brought ": 4917,
      ", Mi": 4918,
      ", Madam ": 4919,
      "will be fine ": 4920,
      "something about your ": 4921,
      "must have ": 4922,
      "I don't want to ": 4923,
      "before I ": 4924,
      "before you ": 4925,
      "checking ": 4926,
      "starts ": 4927,
      "? ' \" Yes , ": 4928,
      "Why not ": 4929,
      "ready to ": 4930,
      "appro": 4931,
      "appeti": 4932,
      "next month ": 4933,
      ". How many ": 4934,
      "I can do for you ": 4935,
      "don ’ t know ": 4936,
      "changes ": 4937,
      "stupid ": 4938,
      "corpor": 4939,
      ". Do you know ": 4940,
      ". '\n ' You can ": 4941,
      ", we can ": 4942,
      ", we will ": 4943,
      "audition ": 4944,
      "auto-": 4945,
      "that's right ": 4946,
      ". Come ": 4947,
      ". Could I ": 4948,
      ", so we ": 4949,
      "learned ": 4950,
      "['What can I do for you ": 4951,
      "gging ": 4952,
      "? I thought ": 4953,
      ". '\n ' He ": 4954,
      "ground ": 4955,
      "piec": 4956,
      "put the ": 4957,
      "plans ": 4958,
      "ask the ": 4959,
      ", but I can't ": 4960,
      "warming ": 4961,
      "catalo": 4962,
      "suppor": 4963,
      "classical music ": 4964,
      "shape ": 4965,
      ". Brown ": 4966,
      ". Of course ": 4967,
      "calls ": 4968,
      "turned ": 4969,
      "anyone ": 4970,
      "dining ": 4971,
      "immy ": 4972,
      "pass": 4973,
      "['How do you ": 4974,
      "dollar ": 4975,
      "driver": 4976,
      "driving ": 4977,
      "Toky": 4978,
      "decided to ": 4979,
      "to see if ": 4980,
      "phone number ": 4981,
      "charges ": 4982,
      "girls ": 4983,
      "wanna ": 4984,
      ". \"\n \" I can't ": 4985,
      ". \"\n \" I guess ": 4986,
      "take a message ": 4987,
      ". Here it is ": 4988,
      ". '\n ' Oh , yes ": 4989,
      "have the same ": 4990,
      "collea": 4991,
      "stock ": 4992,
      "less than ": 4993,
      "seen you ": 4994,
      "cription ": 4995,
      "let ’ s ": 4996,
      "read it ": 4997,
      "for your help ": 4998,
      "colors ": 4999,
      "everywhere ": 5000,
      "a few minutes ": 5001,
      "know what I ": 5002,
      "Listen ": 5003,
      ". '\n ' Okay ": 5004,
      "? '\n ' It ’ s ": 5005,
      "matter of ": 5006,
      "Account ": 5007,
      "Monica ": 5008,
      "appl": 5009,
      "cooper": 5010,
      "honey ": 5011,
      "angz": 5012,
      "respect ": 5013,
      "qualified ": 5014,
      "seems to be ": 5015,
      "windows ": 5016,
      "hungry ": 5017,
      "a real ": 5018,
      "speak English ": 5019,
      "through the ": 5020,
      "amoun": 5021,
      "describe ": 5022,
      "third ": 5023,
      ". That's the ": 5024,
      "policy ": 5025,
      "trying to get ": 5026,
      "basically ": 5027,
      "held ": 5028,
      "height ": 5029,
      "someone else ": 5030,
      "blood ": 5031,
      "bye . ']": 5032,
      "picture ": 5033,
      "pictures ": 5034,
      "of them are ": 5035,
      "carefully ": 5036,
      ". '\n ' Is it ": 5037,
      "Perfect ": 5038,
      "born ": 5039,
      "borhood ": 5040,
      "cases ": 5041,
      "ing.": 5042,
      ". Can you tell me ": 5043,
      "promis": 5044,
      "Right now ": 5045,
      "aily ": 5046,
      "deal with ": 5047,
      "straight ": 5048,
      "Paris ": 5049,
      ". '\n ' Thanks a lot ": 5050,
      "an excellent ": 5051,
      "bags ": 5052,
      "swim ": 5053,
      "variety ": 5054,
      ", Jack ": 5055,
      "between the ": 5056,
      "under the ": 5057,
      "yeah , ": 5058,
      "subject ": 5059,
      "contact ": 5060,
      "falling ": 5061,
      "general ": 5062,
      ", what's the ": 5063,
      "relax": 5064,
      "cameras ": 5065,
      "attention to ": 5066,
      "? '\n ' There are ": 5067,
      "concert ": 5068,
      "surprised ": 5069,
      "wondering if you ": 5070,
      "packed ": 5071,
      "introduce ": 5072,
      ". '\n ' Don ’ t worry ": 5073,
      "neighborhood ": 5074,
      "campus ": 5075,
      "let's go in ": 5076,
      "Jenny ": 5077,
      "during the ": 5078,
      "y-on ": 5079,
      "living room ": 5080,
      "ank you.": 5081,
      "satisfied ": 5082,
      "acceptable ": 5083,
      "Me too ": 5084,
      "measu": 5085,
      "valu": 5086,
      "incredi": 5087,
      "article ": 5088,
      "bedroom ": 5089,
      "shortly ": 5090,
      "mustn't ": 5091,
      "pizza ": 5092,
      ". Besides ": 5093,
      "wants to ": 5094,
      ", Mr . Sandals ": 5095,
      "avoid ": 5096,
      "download ": 5097,
      ". Remember ": 5098,
      "Tony ": 5099,
      "athle": 5100,
      "items ": 5101,
      "departure ": 5102,
      "necessary ": 5103,
      "assistant ": 5104,
      "German ": 5105,
      "cell phone ": 5106,
      "gym ": 5107,
      "mountain ": 5108,
      "topic ": 5109,
      "day after tomorrow ": 5110,
      "against ": 5111,
      "carry-on ": 5112,
      "immediately ": 5113,
      "opportunity ": 5114,
      "Trans Pacific ": 5115,
      "apartments ": 5116,
      "throat ": 5117,
      "environ": 5118,
      "part-time ": 5119,
      "perfectly ": 5120,
      "auto-rever": 5121,
      "Tokyo ": 5122,
      "-9": 5123,
      "-out ": 5124,
      ".The ": 5125,
      "12": 5126,
      "16": 5127,
      "100 ": 5128,
      "21 ": 5129,
      "62": 5130,
      "8th ": 5131,
      "Al": 5132,
      "All ": 5133,
      "Ang": 5134,
      "Alright ": 5135,
      "AM ": 5136,
      "Bar": 5137,
      "Bye ": 5138,
      "Car": 5139,
      "Cre": 5140,
      "Cali": 5141,
      "Dan ": 5142,
      "Everything ": 5143,
      "Econom": 5144,
      "Fl": 5145,
      "Flight ": 5146,
      "Ge": 5147,
      "Games ": 5148,
      "Hu": 5149,
      "Ita": 5150,
      "Jord": 5151,
      "Kor": 5152,
      "Kar": 5153,
      "On ": 5154,
      "Ru": 5155,
      "Rob": 5156,
      "See you ": 5157,
      "Smith ": 5158,
      "Susan ": 5159,
      "Ty": 5160,
      "Tom": 5161,
      "That": 5162,
      "Uh , ": 5163,
      "Win": 5164,
      "Whatever ": 5165,
      "ads ": 5166,
      "ah , ": 5167,
      "ble": 5168,
      "bbi": 5169,
      "bits ": 5170,
      "balance ": 5171,
      "blue ": 5172,
      "chat ": 5173,
      "cus ": 5174,
      "den": 5175,
      "dang": 5176,
      "ed": 5177,
      "eli": 5178,
      "email ": 5179,
      "fy ": 5180,
      "fell ": 5181,
      "fit": 5182,
      "fra": 5183,
      "flies ": 5184,
      "felt ": 5185,
      "ger": 5186,
      "gers ": 5187,
      "hell ": 5188,
      "igh ": 5189,
      "jour": 5190,
      "lack ": 5191,
      "mood ": 5192,
      "mper": 5193,
      "mess ": 5194,
      "ners ": 5195,
      "o.": 5196,
      "otic ": 5197,
      "other": 5198,
      "ok , ": 5199,
      "pet ": 5200,
      "pho": 5201,
      "pans ": 5202,
      "puni": 5203,
      "sh , ": 5204,
      "smar": 5205,
      "sses ": 5206,
      "scen": 5207,
      "scul": 5208,
      "tter": 5209,
      "um": 5210,
      "ued ": 5211,
      "une": 5212,
      "ups ": 5213,
      "v ": 5214,
      "vor": 5215,
      "vent ": 5216,
      "vings ": 5217,
      "vol": 5218,
      "wer": 5219,
      "won the ": 5220,
      "wouldn ’ t ": 5221,
      "ysical ": 5222,
      "z ": 5223,
      "zu": 5224,
      "t the ": 5225,
      "s of ": 5226,
      "ough": 5227,
      "inst": 5228,
      "inju": 5229,
      "influ": 5230,
      ". Ex": 5231,
      ". Don't worry ": 5232,
      " ' ll ": 5233,
      "erous ": 5234,
      "annu": 5235,
      "antic ": 5236,
      ", f": 5237,
      ", very ": 5238,
      ", she ": 5239,
      ", it is ": 5240,
      ", you're ": 5241,
      ", that ’ s ": 5242,
      ", can you ": 5243,
      ", maybe ": 5244,
      ", young ": 5245,
      ", aren ’ t ": 5246,
      "young": 5247,
      "oney ": 5248,
      "one's ": 5249,
      "one.": 5250,
      "I might ": 5251,
      "I had a ": 5252,
      "ores ": 5253,
      "you think ": 5254,
      "you look ": 5255,
      "you had ": 5256,
      "you didn't ": 5257,
      "you mean ": 5258,
      "you ’ d ": 5259,
      "llen": 5260,
      "hai ": 5261,
      "habit ": 5262,
      "the right ": 5263,
      "ending ": 5264,
      "engin": 5265,
      "encoura": 5266,
      "to M": 5267,
      "to it ": 5268,
      "to ask ": 5269,
      "to wear ": 5270,
      "to Beijing ": 5271,
      "arling ": 5272,
      "arrange ": 5273,
      "a better ": 5274,
      "a room ": 5275,
      "remind ": 5276,
      "refund ": 5277,
      "resources ": 5278,
      "is he ": 5279,
      "is going to ": 5280,
      "is only ": 5281,
      "is quite ": 5282,
      ". '\n ' Just ": 5283,
      ". '\n ' If ": 5284,
      ". '\n ' Did ": 5285,
      ". '\n ' Really ": 5286,
      ". '\n ' Who ": 5287,
      ". '\n ' Come on ": 5288,
      ". '\n ' Fine ": 5289,
      "es , ": 5290,
      "me up ": 5291,
      "at 3": 5292,
      "at 7": 5293,
      "at me ": 5294,
      "at this ": 5295,
      "tip ": 5296,
      "titu": 5297,
      "tific": 5298,
      "ed and ": 5299,
      "on sale ": 5300,
      "on Friday ": 5301,
      "on Saturday ": 5302,
      "on Sunday ": 5303,
      "or the ": 5304,
      "or two ": 5305,
      "it . I ": 5306,
      "it will ": 5307,
      "it would ": 5308,
      "it take ": 5309,
      "it . It ": 5310,
      "it comes ": 5311,
      "it rain": 5312,
      "and it's ": 5313,
      "and she ": 5314,
      "and enjoy ": 5315,
      "and talk ": 5316,
      "lian ": 5317,
      "liar ": 5318,
      "in his ": 5319,
      "in order ": 5320,
      "in class ": 5321,
      "in Beijing ": 5322,
      "in touch ": 5323,
      "ooks ": 5324,
      "? '\n ' How ": 5325,
      "? '\n ' This is ": 5326,
      "? '\n ' Yeah , I ": 5327,
      "stone ": 5328,
      "strong ": 5329,
      "staying ": 5330,
      "stands ": 5331,
      "of an ": 5332,
      "of you to ": 5333,
      "of mine ": 5334,
      "wich ": 5335,
      "ries ": 5336,
      "rich ": 5337,
      "for some ": 5338,
      "for them ": 5339,
      "for sure ": 5340,
      "for her ": 5341,
      "for their ": 5342,
      "for more than ": 5343,
      "for calling ": 5344,
      "Thur": 5345,
      "have two ": 5346,
      "have anything ": 5347,
      "atch ": 5348,
      "that your ": 5349,
      "that would be ": 5350,
      "ici": 5351,
      "icy": 5352,
      "icy ": 5353,
      "['It ": 5354,
      "['Oh , ": 5355,
      "['This ": 5356,
      "['Look ": 5357,
      "['Can I help you ": 5358,
      "plate ": 5359,
      "are getting ": 5360,
      "bell": 5361,
      "bear ": 5362,
      ". I also ": 5363,
      ". I wonder ": 5364,
      "ght": 5365,
      ". \"\n ' We ": 5366,
      ". \"\n ' Can I ": 5367,
      ". \"\n ' If ": 5368,
      ". \"\n ' Sorry ": 5369,
      ". \"\n ' Yes , I ": 5370,
      ". \"\n ' Oh , I ": 5371,
      ". \"\n ' Is it ": 5372,
      "ab ": 5373,
      "above ": 5374,
      "sel": 5375,
      "setting ": 5376,
      "selling ": 5377,
      "section ": 5378,
      "sig": 5379,
      "situ": 5380,
      "silly ": 5381,
      "silk ": 5382,
      "shoo": 5383,
      "shouldn ’ t ": 5384,
      "sually ": 5385,
      "tations ": 5386,
      ". \"\n \" W": 5387,
      ". \"\n \" That ": 5388,
      ". \"\n \" no ": 5389,
      ". \"\n \" What's ": 5390,
      "ly and ": 5391,
      "as much ": 5392,
      "now . \"\n ' ": 5393,
      "now ? '\n \" ": 5394,
      " \"\n \" ": 5395,
      ". '\n \" Yeah , ": 5396,
      ". '\n \" I'd like to ": 5397,
      ". '\n \" Wow ": 5398,
      ". '\n \" Okay ": 5399,
      "mals ": 5400,
      "my car ": 5401,
      "my friends ": 5402,
      ", I know ": 5403,
      ", I just ": 5404,
      ", I really ": 5405,
      ", I have to ": 5406,
      ", I hope ": 5407,
      ", I would like to ": 5408,
      ", I guess ": 5409,
      "we get ": 5410,
      "we start ": 5411,
      "What do you mean ": 5412,
      "? '\n \" S": 5413,
      "? '\n \" I'll ": 5414,
      "? '\n \" I've ": 5415,
      "? '\n \" Sure ": 5416,
      "? '\n \" I'd like to ": 5417,
      "? '\n \" I don't know ": 5418,
      "with our ": 5419,
      "with them ": 5420,
      "with people ": 5421,
      "! Thank you ": 5422,
      "! Why ": 5423,
      "! Just ": 5424,
      "! Look ": 5425,
      "! Congratulations ": 5426,
      "You are ": 5427,
      "You can ": 5428,
      "this week ": 5429,
      "this evening ": 5430,
      "iter ": 5431,
      "ited to ": 5432,
      "so great ": 5433,
      "so glad ": 5434,
      "ally speaking ": 5435,
      "? That ": 5436,
      "? Why ": 5437,
      "? You're ": 5438,
      "? There ": 5439,
      "? They ": 5440,
      "about my ": 5441,
      "all of ": 5442,
      "think you ": 5443,
      "think of ": 5444,
      "agen": 5445,
      "agent ": 5446,
      "asse": 5447,
      "assu": 5448,
      "come": 5449,
      "lob": 5450,
      "loves ": 5451,
      "loved ": 5452,
      "exa": 5453,
      "’ s your ": 5454,
      ". Wi": 5455,
      "go home ": 5456,
      "forni": 5457,
      "very sorry ": 5458,
      "very important ": 5459,
      "very happy ": 5460,
      "spare ": 5461,
      "muse": 5462,
      "? ' ' H": 5463,
      "? ' ' Not ": 5464,
      ". ' ' Oh , ": 5465,
      ". ' ' Where ": 5466,
      "here ? ": 5467,
      "ladies ": 5468,
      "moving ": 5469,
      ", but my ": 5470,
      ", but I don't think ": 5471,
      "just go ": 5472,
      "buses ": 5473,
      "proce": 5474,
      "propos": 5475,
      "what about ": 5476,
      "up to ": 5477,
      "up your ": 5478,
      "dem": 5479,
      "deed ": 5480,
      "good luck ": 5481,
      "do you know ": 5482,
      "do you usually ": 5483,
      "hiking ": 5484,
      "he has ": 5485,
      "aff": 5486,
      "in the re": 5487,
      "in the morning ": 5488,
      "in the same ": 5489,
      "in the afternoon ": 5490,
      "in the future ": 5491,
      "ada ": 5492,
      "quick": 5493,
      "[\"You're ": 5494,
      "[\"What's the ": 5495,
      "? \"\n \" I've ": 5496,
      "? \"\n \" Sure ": 5497,
      "? \"\n \" Not ": 5498,
      "? \"\n \" I'm sorry ": 5499,
      "vita": 5500,
      "tton ": 5501,
      "midd": 5502,
      "coin": 5503,
      "ed to the ": 5504,
      "see , ": 5505,
      ", and my ": 5506,
      ", and so on ": 5507,
      "savings ": 5508,
      ". Any ": 5509,
      "partic": 5510,
      "take you ": 5511,
      "much more ": 5512,
      "fix": 5513,
      ". '\n ' I can ": 5514,
      ". '\n ' I want to ": 5515,
      ". '\n ' I agree ": 5516,
      "teen ": 5517,
      "temp": 5518,
      "temper": 5519,
      "? '\n ' I can ": 5520,
      "? '\n ' I just ": 5521,
      "? '\n ' I would ": 5522,
      "? '\n ' I really ": 5523,
      "? '\n ' I need ": 5524,
      "? '\n ' I need to ": 5525,
      "from our ": 5526,
      "if he ": 5527,
      "if you are ": 5528,
      "tran": 5529,
      "they will ": 5530,
      "competi": 5531,
      "hoping ": 5532,
      "pregn": 5533,
      "president ": 5534,
      "have a great ": 5535,
      "have a lot of ": 5536,
      "come with me ": 5537,
      "mbo ": 5538,
      ". See ": 5539,
      ". Shall ": 5540,
      "pets ": 5541,
      "car , ": 5542,
      "to the hospital ": 5543,
      ". You will ": 5544,
      "got it ": 5545,
      "sure you ": 5546,
      "sure he ": 5547,
      "White ": 5548,
      "bottle ": 5549,
      "bother": 5550,
      "boarding ": 5551,
      "gives ": 5552,
      "have to get ": 5553,
      "somewhere ": 5554,
      "work and ": 5555,
      "look forward to ": 5556,
      "candid": 5557,
      "other things ": 5558,
      "ers are ": 5559,
      "two hours ": 5560,
      "! '\n ' I ’ m ": 5561,
      "people are ": 5562,
      "Thank you for ": 5563,
      "bills ": 5564,
      "mps ": 5565,
      ". Mr ": 5566,
      ". Many ": 5567,
      ". May I help you ": 5568,
      ". Most ": 5569,
      ". May I have ": 5570,
      "going to do ": 5571,
      "are you talking about ": 5572,
      "... \"\n \" ": 5573,
      "... ']": 5574,
      "... I'm ": 5575,
      "nails ": 5576,
      "soap ": 5577,
      ". What time ": 5578,
      ". What about you ": 5579,
      ". We ’ ll ": 5580,
      ". We ’ Ve ": 5581,
      "at the end of the ": 5582,
      "need your ": 5583,
      "waited ": 5584,
      "rule ": 5585,
      "tell her ": 5586,
      ", you are ": 5587,
      ". '\n ' What ’ s ": 5588,
      ". '\n ' What is your ": 5589,
      "back home ": 5590,
      "pati": 5591,
      "paint ": 5592,
      "fried ": 5593,
      "fridge ": 5594,
      "for the last ": 5595,
      "Chinat": 5596,
      "tual ": 5597,
      ". I'm really ": 5598,
      "a blo": 5599,
      "a bad ": 5600,
      "a baby ": 5601,
      "? '\n ' Yes . I ": 5602,
      "only have ": 5603,
      "only one ": 5604,
      ", Mrs ": 5605,
      "for a drink ": 5606,
      "need to take ": 5607,
      "is a little ": 5608,
      "leaves ": 5609,
      ". '\n ' Alright ": 5610,
      "kill": 5611,
      "must have been ": 5612,
      "she has ": 5613,
      "issue ": 5614,
      "give up ": 5615,
      "? ' \" No ": 5616,
      "appy ": 5617,
      "nice to ": 5618,
      ". How are you ": 5619,
      "keeps ": 5620,
      "OK . I'll ": 5621,
      "clothing ": 5622,
      "I'd rather ": 5623,
      "changed ": 5624,
      "studies ": 5625,
      "studied ": 5626,
      "exports ": 5627,
      "after a ": 5628,
      "you can ’ t ": 5629,
      "love the ": 5630,
      "corresp": 5631,
      ". Do you have a ": 5632,
      ". '\n ' You ’ re ": 5633,
      "a good job ": 5634,
      "Oh no ": 5635,
      "long have you been ": 5636,
      "phy ": 5637,
      "physical ": 5638,
      "again . ']": 5639,
      ". '\n ' How many ": 5640,
      ", we are ": 5641,
      "tell me the ": 5642,
      "$ 7": 5643,
      "$ 10 ": 5644,
      "audi": 5645,
      "year , ": 5646,
      "who is ": 5647,
      ". ' \" What's ": 5648,
      "gger ": 5649,
      "opini": 5650,
      "’ re not ": 5651,
      "pron": 5652,
      "feel better ": 5653,
      "grand": 5654,
      "group ": 5655,
      ", but I do ": 5656,
      "ketball ": 5657,
      "ward ": 5658,
      "classes ": 5659,
      "ten minutes ": 5660,
      ". Bye ": 5661,
      "inviting ": 5662,
      "business trip ": 5663,
      "Joe ": 5664,
      ". '\n ' That would be ": 5665,
      ". '\n ' That sounds ": 5666,
      "that you have ": 5667,
      "years ago ": 5668,
      "heard of ": 5669,
      "to do it ": 5670,
      "to do that ": 5671,
      "improve ": 5672,
      "passen": 5673,
      "dressing ": 5674,
      "salad ": 5675,
      ". '\n ' Thank you very much ": 5676,
      ". '\n ' Do you think ": 5677,
      "Today ": 5678,
      "the reservation ": 5679,
      "and I are ": 5680,
      "stay here ": 5681,
      "stay in bed ": 5682,
      "already have ": 5683,
      "wanted ": 5684,
      "show me ": 5685,
      "understanding ": 5686,
      "presen": 5687,
      ". My name is ": 5688,
      "wrong with you ": 5689,
      "wrong with it ": 5690,
      ". \"\n \" I know ": 5691,
      ". Is there ": 5692,
      "inform ": 5693,
      ". Thank you for ": 5694,
      ". Thank you very much ": 5695,
      "moment , please ": 5696,
      "into a ": 5697,
      "happy to ": 5698,
      "enjoy your ": 5699,
      "reception ": 5700,
      "it was a ": 5701,
      "Mr . Johnson ": 5702,
      ". Try ": 5703,
      ". Take ": 5704,
      "let you know ": 5705,
      "read the ": 5706,
      "familiar ": 5707,
      "look at your ": 5708,
      "friend of mine ": 5709,
      "everyday ": 5710,
      "cense ": 5711,
      "stomach ": 5712,
      "? '\n ' It is ": 5713,
      "terribly ": 5714,
      "case , ": 5715,
      "weap": 5716,
      "cooked ": 5717,
      "? '\n ' No , I ": 5718,
      "qualify ": 5719,
      "pick you up ": 5720,
      "won't happen ": 5721,
      ". Everything ": 5722,
      "arriving ": 5723,
      "a reservation ": 5724,
      "steak ": 5725,
      "steamed ": 5726,
      "withdra": 5727,
      "['May I help you ": 5728,
      ". There is a ": 5729,
      "We'll ": 5730,
      "among ": 5731,
      "animals ": 5732,
      "ood-": 5733,
      "needed ": 5734,
      ". Then I ": 5735,
      "advanta": 5736,
      "wedding anniversary ": 5737,
      "basketball ": 5738,
      "challen": 5739,
      "a new job ": 5740,
      ". You know , ": 5741,
      "found it ": 5742,
      "hurts ": 5743,
      "picnic ": 5744,
      ". \"\n ' Thank you . ']": 5745,
      ". \"\n ' Thank you very much . ']": 5746,
      "choco": 5747,
      "isn't it ? \"\n ' ": 5748,
      "know": 5749,
      "welcome . ']": 5750,
      "answer ": 5751,
      "nothing serious ": 5752,
      "seriously ": 5753,
      "recommend you ": 5754,
      ". We're ": 5755,
      "deliver ": 5756,
      ". '\n ' I ’ m sure ": 5757,
      "national day ": 5758,
      "Deposit ": 5759,
      "Very well ": 5760,
      "clients ": 5761,
      "climb ": 5762,
      ". I ’ Ve been ": 5763,
      ". \"\n \" It's a ": 5764,
      "? You look ": 5765,
      "clothes and ": 5766,
      "doesn't matter ": 5767,
      "occa": 5768,
      "buildings ": 5769,
      "Park ": 5770,
      "bought this ": 5771,
      "upset ": 5772,
      "ondence ": 5773,
      "plan to ": 5774,
      "higher ": 5775,
      "Nice to see you ": 5776,
      "crow": 5777,
      "dealing ": 5778,
      "garden ": 5779,
      "huge ": 5780,
      "ancient ": 5781,
      "test results ": 5782,
      "secret ": 5783,
      "mployment ": 5784,
      "languages ": 5785,
      "United ": 5786,
      "Unfortunately ": 5787,
      "cafe ": 5788,
      "fruits ": 5789,
      "included ": 5790,
      ", ma'": 5791,
      "quarre": 5792,
      "quarter ": 5793,
      "success ": 5794,
      "Is there anything else ": 5795,
      "day's ": 5796,
      "few days ": 5797,
      "lines ": 5798,
      "vote ": 5799,
      "will you be ": 5800,
      ". '\n ' Where did you ": 5801,
      "students ": 5802,
      "graduate ": 5803,
      "graduation ": 5804,
      "needs to be ": 5805,
      "entire ": 5806,
      "medium ": 5807,
      "prepared ": 5808,
      "purpose ": 5809,
      "tory ": 5810,
      "you ’ re right ": 5811,
      "regulations ": 5812,
      "Hello , ": 5813,
      "decor": 5814,
      "instead ": 5815,
      ". '\n ' Can you tell me ": 5816,
      ". '\n ' Does the ": 5817,
      ". ' ' Thank you . ']": 5818,
      ". After all ": 5819,
      ". Have a ": 5820,
      "Take it easy ": 5821,
      "neighb": 5822,
      "medals ": 5823,
      "have a look at the ": 5824,
      "social ": 5825,
      "traveling ": 5826,
      "take a look at the ": 5827,
      "depends on ": 5828,
      "responsible ": 5829,
      "Company ": 5830,
      "easier ": 5831,
      "easily ": 5832,
      "shouldn't be ": 5833,
      "? '\n \" Not yet ": 5834,
      "agreement ": 5835,
      "telling you ": 5836,
      "telling me ": 5837,
      "solved ": 5838,
      "authori": 5839,
      "promotion ": 5840,
      "thousand dollars ": 5841,
      "Green ": 5842,
      "gave me ": 5843,
      "non-": 5844,
      "safe ": 5845,
      "engag": 5846,
      "accountant ": 5847,
      "details ": 5848,
      "join us ": 5849,
      "website ": 5850,
      ". Goodbye . ']": 5851,
      "claim ": 5852,
      "square ": 5853,
      "slow down ": 5854,
      "teach you ": 5855,
      "ordered ": 5856,
      "a number of ": 5857,
      "across the ": 5858,
      "speed ": 5859,
      "advise ": 5860,
      "fix the ": 5861,
      "documents ": 5862,
      "fashion ": 5863,
      "experienced ": 5864,
      ". Everyone ": 5865,
      "cleaning ": 5866,
      "advertisement ": 5867,
      "Olympic Games ": 5868,
      "development ": 5869,
      "Japanese ": 5870,
      "score ": 5871,
      "industry ": 5872,
      "tired of ": 5873,
      ". They're ": 5874,
      "except ": 5875,
      "laundry ": 5876,
      "column ": 5877,
      "kilometers ": 5878,
      "drinking ": 5879,
      "Personal ": 5880,
      "purchase ": 5881,
      "disappoin": 5882,
      "Europe ": 5883,
      "example , ": 5884,
      "-in-law ": 5885,
      "aisle ": 5886,
      "machin": 5887,
      "wrap ": 5888,
      "inflation ": 5889,
      "announ": 5890,
      "recogni": 5891,
      "properly ": 5892,
      "polis ": 5893,
      "pieces of ": 5894,
      "matter of fact ": 5895,
      "measures ": 5896,
      "incredible ": 5897,
      "environment ": 5898,
      "auto-reverse ": 5899,
      "Californi": 5900,
      "dangerous ": 5901,
      "sculp": 5902,
      "unemployment ": 5903,
      "titude ": 5904,
      "Thursday ": 5905,
      "proposal ": 5906,
      "particul": 5907,
      "temperature ": 5908,
      "correspondence ": 5909,
      "passenger ": 5910,
      "terribly sorry ": 5911,
      "California ": 5912,
      "! ' \" ": 5913,
      "+ ": 5914,
      "-offer ": 5915,
      "-to-": 5916,
      ".H": 5917,
      ".What ": 5918,
      ".This ": 5919,
      ".She ": 5920,
      "00": 5921,
      "18 ": 5922,
      "11 ": 5923,
      "24": 5924,
      "44": 5925,
      "45 ": 5926,
      "60 ": 5927,
      "7-9": 5928,
      "86 ": 5929,
      "As": 5930,
      "Afri": 5931,
      "CE": 5932,
      "Cla": 5933,
      "Char": 5934,
      "Cool ": 5935,
      "Clar": 5936,
      "Dra": 5937,
      "Four ": 5938,
      "Fran": 5939,
      "Go ": 5940,
      "Gate ": 5941,
      "Gran": 5942,
      "Gener": 5943,
      "Goodbye ": 5944,
      "He": 5945,
      "Hou": 5946,
      "Har": 5947,
      "Holl": 5948,
      "Jess": 5949,
      "Jill ": 5950,
      "Jane ": 5951,
      "Jimmy ": 5952,
      "Ka": 5953,
      "King ": 5954,
      "Last ": 5955,
      "Looks ": 5956,
      "Ma": 5957,
      "Mc": 5958,
      "Man": 5959,
      "Mad": 5960,
      "Neal ": 5961,
      "Open ": 5962,
      "Richard ": 5963,
      "Sea": 5964,
      "Sal": 5965,
      "Serv": 5966,
      "Tur": 5967,
      "Usually ": 5968,
      "Wa": 5969,
      "Were ": 5970,
      "Wat": 5971,
      "Y ": 5972,
      "ah": 5973,
      "ame ": 5974,
      "avi": 5975,
      "aim ": 5976,
      "bb": 5977,
      "bon": 5978,
      "bow": 5979,
      "bin ": 5980,
      "bea": 5981,
      "bac": 5982,
      "bab": 5983,
      "ball": 5984,
      "bad": 5985,
      "bble ": 5986,
      "ca ": 5987,
      "cry ": 5988,
      "cked ": 5989,
      "cket ": 5990,
      "couldn ’ t ": 5991,
      "cine": 5992,
      "don": 5993,
      "dor ": 5994,
      "dear": 5995,
      "dee": 5996,
      "dear ": 5997,
      "dback ": 5998,
      "dating ": 5999,
      "dark ": 6000,
      "dancing ": 6001,
      "daily ": 6002,
      "ef ": 6003,
      "e're ": 6004,
      "eir ": 6005,
      "ements ": 6006,
      "eans ": 6007,
      "edge ": 6008,
      "fat ": 6009,
      "fan ": 6010,
      "fare ": 6011,
      "fers ": 6012,
      "gan ": 6013,
      "gust ": 6014,
      "gine ": 6015,
      "glas": 6016,
      "hit ": 6017,
      "hello ": 6018,
      "ion ": 6019,
      "ilets ": 6020,
      "jac": 6021,
      "jam ": 6022,
      "jeans ": 6023,
      "kne": 6024,
      "kno": 6025,
      "kick ": 6026,
      "k-in ": 6027,
      "lt ": 6028,
      "mon ": 6029,
      "mere ": 6030,
      "mit": 6031,
      "mate ": 6032,
      "mance ": 6033,
      "mself ": 6034,
      "may I ": 6035,
      "now": 6036,
      "nea": 6037,
      "nic": 6038,
      "nit": 6039,
      "nur": 6040,
      "natu": 6041,
      "pin": 6042,
      "pen": 6043,
      "pm ": 6044,
      "page ": 6045,
      "pool ": 6046,
      "pink ": 6047,
      "pes of ": 6048,
      "paying ": 6049,
      "rt ": 6050,
      "roun": 6051,
      "rings ": 6052,
      "rates ": 6053,
      "s-": 6054,
      "s ' ": 6055,
      "sis ": 6056,
      "spl": 6057,
      "say": 6058,
      "swee": 6059,
      "swe": 6060,
      "sn ’ t ": 6061,
      "slot ": 6062,
      "sore ": 6063,
      "slow": 6064,
      "tin": 6065,
      "tre ": 6066,
      "tari": 6067,
      "uc": 6068,
      "uh ": 6069,
      "uri": 6070,
      "ution ": 6071,
      "u , ": 6072,
      "wro": 6073,
      "whatever ": 6074,
      "yst": 6075,
      "yellow ": 6076,
      "ywood ": 6077,
      "zes ": 6078,
      "zil ": 6079,
      "‘ ": 6080,
      "s a ": 6081,
      "s . '\n ' ": 6082,
      "tho": 6083,
      "ths ": 6084,
      "thin ": 6085,
      "thri": 6086,
      "ouri": 6087,
      "ough , ": 6088,
      "inf": 6089,
      "ination ": 6090,
      "inese ": 6091,
      "innea": 6092,
      ". Do ": 6093,
      ". Ch": 6094,
      ". Not ": 6095,
      ". Very ": 6096,
      ". Next ": 6097,
      ". Right now ": 6098,
      " ' t ": 6099,
      "ership ": 6100,
      "ante": 6101,
      "ange ": 6102,
      ", L": 6103,
      ", Y": 6104,
      ", c": 6105,
      ", be": 6106,
      ", will ": 6107,
      ", don't ": 6108,
      ", OK ": 6109,
      ", his ": 6110,
      ", I'd like to ": 6111,
      ", let's ": 6112,
      ", don't you ": 6113,
      ", we'll ": 6114,
      ", coffee ": 6115,
      ", will you ": 6116,
      ", Sir ": 6117,
      ", April ": 6118,
      ", can I help you ": 6119,
      ", Bruce ": 6120,
      "you'd like to ": 6121,
      "ond ": 6122,
      "onto ": 6123,
      "oner ": 6124,
      "oney , ": 6125,
      "I like ": 6126,
      "I had ": 6127,
      "I put ": 6128,
      "I won't ": 6129,
      "orge ": 6130,
      "ories ": 6131,
      "orange ": 6132,
      "you . '\n \" ": 6133,
      "you don't ": 6134,
      "you will be ": 6135,
      "you knew ": 6136,
      "llution ": 6137,
      "havi": 6138,
      "hael ": 6139,
      "the ex": 6140,
      "the po": 6141,
      "the pay ": 6142,
      "the place ": 6143,
      "the money ": 6144,
      "the case ": 6145,
      "the trouble ": 6146,
      "the guy ": 6147,
      "the plane ": 6148,
      "the truth ": 6149,
      "eni": 6150,
      "ent": 6151,
      "enry ": 6152,
      "enter": 6153,
      "ences ": 6154,
      "ental ": 6155,
      "to S": 6156,
      "to a ": 6157,
      "to pre": 6158,
      "to $ ": 6159,
      "to watch ": 6160,
      "to eat ": 6161,
      "to hear ": 6162,
      "to drink ": 6163,
      "to spend ": 6164,
      "to visit ": 6165,
      "to buy a ": 6166,
      "to pick up ": 6167,
      "to celebrate ": 6168,
      "ing me ": 6169,
      "arante": 6170,
      "a place ": 6171,
      "a game ": 6172,
      "a doctor ": 6173,
      "a message ": 6174,
      "a . m . ": 6175,
      "relie": 6176,
      "regre": 6177,
      "relations ": 6178,
      "reply ": 6179,
      "rememb": 6180,
      "restric": 6181,
      "is to ": 6182,
      "is such a ": 6183,
      "is $ 1": 6184,
      ". '\n ' Well ": 6185,
      ". '\n ' Ex": 6186,
      ". '\n ' Of course ": 6187,
      ". '\n ' Let me ": 6188,
      ". '\n ' This is ": 6189,
      ". '\n ' Certainly ": 6190,
      ". '\n ' Yeah , I ": 6191,
      ". '\n ' Besides ": 6192,
      "owed ": 6193,
      "es for ": 6194,
      "es with ": 6195,
      "me some ": 6196,
      "at night ": 6197,
      "at school ": 6198,
      "at 7 ": 6199,
      "at six ": 6200,
      "time": 6201,
      "tious ": 6202,
      "ed . '\n \" ": 6203,
      "on you ": 6204,
      "on line ": 6205,
      "on Monday ": 6206,
      "on April ": 6207,
      "on earth ": 6208,
      "or anything ": 6209,
      "it . \"\n \" ": 6210,
      "it with ": 6211,
      "it ? \"\n \" ": 6212,
      "it back ": 6213,
      "it . The ": 6214,
      "it will be ": 6215,
      "it if you ": 6216,
      "it for me ": 6217,
      "it looks ": 6218,
      "it should be ": 6219,
      "it takes ": 6220,
      "and H": 6221,
      "and S": 6222,
      "and re": 6223,
      "and your ": 6224,
      "and I'm ": 6225,
      "and go ": 6226,
      "and what ": 6227,
      "and how ": 6228,
      "and need to ": 6229,
      "and watch ": 6230,
      "and friendly ": 6231,
      "an important ": 6232,
      "an order ": 6233,
      "an insurance ": 6234,
      "an anti": 6235,
      "an accident ": 6236,
      "lif": 6237,
      "license ": 6238,
      "in here ": 6239,
      "in some ": 6240,
      "in their ": 6241,
      "in charge ": 6242,
      "in 19": 6243,
      "in advertising ": 6244,
      "in 200": 6245,
      "? '\n ' OK ": 6246,
      "? '\n ' Ex": 6247,
      "? '\n ' Let me ": 6248,
      "? '\n ' Certainly ": 6249,
      "? '\n ' In ": 6250,
      "? '\n ' To ": 6251,
      "? '\n ' Let ’ s ": 6252,
      "? '\n ' Let me see ": 6253,
      "east ": 6254,
      "stro": 6255,
      "stop": 6256,
      "stones ": 6257,
      "of her ": 6258,
      "of over ": 6259,
      "of Chinese ": 6260,
      "riding ": 6261,
      "for about ": 6262,
      "for three ": 6263,
      "for lunch ": 6264,
      "for a long time ": 6265,
      "Three ": 6266,
      "Those ": 6267,
      "There's ": 6268,
      "have that ": 6269,
      "have made ": 6270,
      "have told me ": 6271,
      "att": 6272,
      "attitude ": 6273,
      "that one ": 6274,
      "that this ": 6275,
      "that day ": 6276,
      "that was ": 6277,
      "that I can ": 6278,
      "that isn't ": 6279,
      "icro": 6280,
      "icient ": 6281,
      "omas ": 6282,
      "['Welcome ": 6283,
      "['Room ": 6284,
      "plumb": 6285,
      "are usually ": 6286,
      "belie": 6287,
      "belt ": 6288,
      "behavi": 6289,
      "action ": 6290,
      "acts ": 6291,
      "acting ": 6292,
      "actions ": 6293,
      ". I really ": 6294,
      ". I like to ": 6295,
      ". I had ": 6296,
      ". I need to ": 6297,
      ". I guess ": 6298,
      ". I enjoy ": 6299,
      ". I haven't ": 6300,
      ". I appreciate ": 6301,
      "be a ": 6302,
      "be sure ": 6303,
      "be able to ": 6304,
      "ney ": 6305,
      "nego": 6306,
      ". \"\n ' Sure ": 6307,
      ". \"\n ' This ": 6308,
      ". \"\n ' I think ": 6309,
      ". \"\n ' I am ": 6310,
      ". \"\n ' When ": 6311,
      ". \"\n ' No problem ": 6312,
      ". \"\n ' Okay ": 6313,
      ". \"\n ' Right ": 6314,
      ". \"\n ' All right ": 6315,
      "abroad ": 6316,
      "secu": 6317,
      "sells ": 6318,
      "do not ": 6319,
      "do anything ": 6320,
      "sive ": 6321,
      "side": 6322,
      "she": 6323,
      "sher ": 6324,
      "shot ": 6325,
      "shine ": 6326,
      "should": 6327,
      "shing": 6328,
      "susp": 6329,
      "suite ": 6330,
      "sudd": 6331,
      "surely ": 6332,
      "your own ": 6333,
      "your back ": 6334,
      "your parents ": 6335,
      "your sister ": 6336,
      "your invitation ": 6337,
      "out your ": 6338,
      "tall ": 6339,
      "tality ": 6340,
      "taught ": 6341,
      ". \"\n \" D": 6342,
      ". \"\n \" S": 6343,
      ". \"\n \" The ": 6344,
      ". \"\n \" Good ": 6345,
      ". \"\n \" Thanks ": 6346,
      ". \"\n \" Yeah , ": 6347,
      ". \"\n \" No , ": 6348,
      ". \"\n \" OK , ": 6349,
      ". \"\n \" Let's ": 6350,
      ". \"\n \" Wow ": 6351,
      ". \"\n \" Okay ": 6352,
      "verage ": 6353,
      "You'll ": 6354,
      "diet ": 6355,
      "diving ": 6356,
      "divor": 6357,
      "as the ": 6358,
      "as usual ": 6359,
      "now , ": 6360,
      "aller": 6361,
      "aller ": 6362,
      " \"\n ' ": 6363,
      ". '\n \" Sure ": 6364,
      ". '\n \" Why ": 6365,
      ". '\n \" What's ": 6366,
      ". '\n \" Thanks ": 6367,
      ". '\n \" Now ": 6368,
      ". '\n \" Well , I ": 6369,
      ". '\n \" I don't think ": 6370,
      "maps ": 6371,
      "chores ": 6372,
      "chinese ": 6373,
      "my parents ": 6374,
      "my God ": 6375,
      ", I wouldn't ": 6376,
      "we ’ re ": 6377,
      "? '\n \" It ": 6378,
      "? '\n \" The ": 6379,
      "? '\n \" My ": 6380,
      "? '\n \" Just ": 6381,
      "? '\n \" A ": 6382,
      "? '\n \" Well , I ": 6383,
      "? '\n \" Yes , I ": 6384,
      "? '\n \" I'm afraid ": 6385,
      "? '\n \" I don't think ": 6386,
      "leg": 6387,
      "legs ": 6388,
      "with this ": 6389,
      "with some ": 6390,
      "with his ": 6391,
      "with their ": 6392,
      "with others ": 6393,
      "! You're ": 6394,
      "! They ": 6395,
      "today's ": 6396,
      "alone ": 6397,
      "alter": 6398,
      "alright ": 6399,
      "this is the ": 6400,
      "this car ": 6401,
      "this season ": 6402,
      "it'll be ": 6403,
      "rais": 6404,
      "so far ": 6405,
      "so excited ": 6406,
      "? Oh , ": 6407,
      "? We ": 6408,
      "? And ": 6409,
      "? Are you ": 6410,
      "esthe": 6411,
      "about one ": 6412,
      "about them ": 6413,
      "about how to ": 6414,
      "about 30 ": 6415,
      "elp ": 6416,
      "all set ": 6417,
      "all of your ": 6418,
      "eck ": 6419,
      "will we ": 6420,
      "will help you ": 6421,
      "will it take ": 6422,
      "term ": 6423,
      "tern ": 6424,
      "terms ": 6425,
      "ternal ": 6426,
      "know why ": 6427,
      "ager ": 6428,
      "asp": 6429,
      "world": 6430,
      "worker ": 6431,
      "any good ": 6432,
      "any problems ": 6433,
      "losing ": 6434,
      "unt ": 6435,
      "unit ": 6436,
      "units ": 6437,
      "unless ": 6438,
      "unusual ": 6439,
      "thing I ": 6440,
      "thing to do ": 6441,
      "exha": 6442,
      "exic": 6443,
      "exam ": 6444,
      "excuse ": 6445,
      "execu": 6446,
      "memor": 6447,
      "memo ": 6448,
      "earlier ": 6449,
      "earrings ": 6450,
      "go through ": 6451,
      "but I ": 6452,
      "forms ": 6453,
      "very bad ": 6454,
      "very busy ": 6455,
      "ird ": 6456,
      "spot ": 6457,
      "spent ": 6458,
      "spee": 6459,
      "spring ": 6460,
      "spending ": 6461,
      "eese ": 6462,
      "ds , ": 6463,
      "there . \"]": 6464,
      "mul": 6465,
      "mum ": 6466,
      "? ' ' Yeah ": 6467,
      "? ' ' Certainly ": 6468,
      ". ' ' OK ": 6469,
      ". ' ' Would you ": 6470,
      ". ' ' When ": 6471,
      ". ' ' Is it ": 6472,
      "here . \"]": 6473,
      "here you are ": 6474,
      "moved ": 6475,
      "mother": 6476,
      ", but I'm ": 6477,
      ", but it's ": 6478,
      ", but also ": 6479,
      "just now ": 6480,
      "just got ": 6481,
      "button ": 6482,
      "profic": 6483,
      "what I'm ": 6484,
      "what he ": 6485,
      "what they ": 6486,
      "what about the ": 6487,
      "up my ": 6488,
      "up ? \"\n ' ": 6489,
      "design": 6490,
      "looked ": 6491,
      "right here ": 6492,
      "right away ": 6493,
      "do you use ": 6494,
      "do you like to ": 6495,
      "do you feel ": 6496,
      "do you prefer ": 6497,
      "hired ": 6498,
      "high , ": 6499,
      "himself ": 6500,
      "in the morn": 6501,
      "ade ": 6502,
      "ading ": 6503,
      "time flies ": 6504,
      "que": 6505,
      "quing ": 6506,
      "would like ": 6507,
      "would rather ": 6508,
      "? \"\n \" M": 6509,
      "? \"\n \" It ": 6510,
      "? \"\n \" Oh , ": 6511,
      "? \"\n \" I think ": 6512,
      "? \"\n \" He's ": 6513,
      "vid": 6514,
      "viously ": 6515,
      "mil": 6516,
      "mission ": 6517,
      "milli": 6518,
      "missed ": 6519,
      "some advice ": 6520,
      "coat ": 6521,
      "code ": 6522,
      "cope ": 6523,
      "really well ": 6524,
      "pota": 6525,
      "pollution ": 6526,
      "cast ": 6527,
      "causing ": 6528,
      "want some ": 6529,
      "see them ": 6530,
      "see him ": 6531,
      "don't mind ": 6532,
      ", and how ": 6533,
      ". Are ": 6534,
      "parking ": 6535,
      "parad": 6536,
      "take some ": 6537,
      "much do you think ": 6538,
      "too late ": 6539,
      "fire ": 6540,
      ". '\n ' I like ": 6541,
      ". '\n ' I will ": 6542,
      "fuss ": 6543,
      "consu": 6544,
      "congratulations ": 6545,
      "? '\n ' I like ": 6546,
      "? '\n ' I would like to ": 6547,
      "? '\n ' I prefer ": 6548,
      "? \"\n ' Yes ": 6549,
      "? \"\n ' Oh , ": 6550,
      "? \"\n ' The ": 6551,
      "? \"\n ' Yeah ": 6552,
      "? \"\n ' Yeah , ": 6553,
      "? \"\n ' Certainly ": 6554,
      "? \"\n ' All right ": 6555,
      "? \"\n ' To ": 6556,
      "doors ": 6557,
      "from me ": 6558,
      "from that ": 6559,
      "from Tai": 6560,
      "perhaps ": 6561,
      "track ": 6562,
      "compact ": 6563,
      "more and ": 6564,
      "more attention ": 6565,
      "minal ": 6566,
      "minds ": 6567,
      "prefer": 6568,
      ". His ": 6569,
      ". Hey , ": 6570,
      ". How's ": 6571,
      "have a very ": 6572,
      "of the day ": 6573,
      "of the book ": 6574,
      "been there ": 6575,
      "gun ": 6576,
      "guarante": 6577,
      "please tell me ": 6578,
      "them to ": 6579,
      "them up ": 6580,
      "mboo ": 6581,
      ". Something ": 6582,
      "pepp": 6583,
      "pei ": 6584,
      "pefully ": 6585,
      "jobs ": 6586,
      "job , ": 6587,
      ". You are ": 6588,
      ". You just ": 6589,
      ". You have to ": 6590,
      "got married ": 6591,
      "sure is ": 6592,
      "boat ": 6593,
      "bother ": 6594,
      "make yourself ": 6595,
      ". It has a ": 6596,
      ". It looks like ": 6597,
      "gel ": 6598,
      "geous ": 6599,
      "getic ": 6600,
      "work , ": 6601,
      "work with ": 6602,
      "work experience ": 6603,
      "duty ": 6604,
      "dures ": 6605,
      "look nice ": 6606,
      "look around ": 6607,
      "tics ": 6608,
      "on the s": 6609,
      "! '\n ' You ": 6610,
      "! '\n ' It ": 6611,
      "! '\n ' Thank you ": 6612,
      "bike ": 6613,
      "going to go ": 6614,
      "did he ": 6615,
      "great ! I ": 6616,
      "great news ": 6617,
      "['Honey ": 6618,
      "... \"]": 6619,
      "nail ": 6620,
      "estly ": 6621,
      "her to ": 6622,
      "sooner ": 6623,
      ". What about ": 6624,
      ". What kind of ": 6625,
      ". What else ": 6626,
      ". What ty": 6627,
      ". What are the ": 6628,
      ". What are you doing ": 6629,
      ". What do you need ": 6630,
      ". We are ": 6631,
      ". We could ": 6632,
      ". We ’ re ": 6633,
      "sert ": 6634,
      "need help ": 6635,
      "singer ": 6636,
      "waiter ": 6637,
      "watch": 6638,
      ". '\n ' What is the ": 6639,
      ". '\n ' What about the ": 6640,
      "back later ": 6641,
      "pamp": 6642,
      "can't wait ": 6643,
      "harder ": 6644,
      ", three ": 6645,
      ", those ": 6646,
      "is the most ": 6647,
      "fries ": 6648,
      "for the next ": 6649,
      "king": 6650,
      "no one ": 6651,
      "no problem ": 6652,
      "had her ": 6653,
      ". I'm sorry ": 6654,
      "a ba": 6655,
      "brown ": 6656,
      ", Ms ": 6657,
      ", Mr.": 6658,
      ", Mum": 6659,
      "ted , ": 6660,
      "ted a ": 6661,
      "ted by ": 6662,
      ". It's so ": 6663,
      ". It's not ": 6664,
      ". It's just ": 6665,
      ". It's nice to meet you ": 6666,
      "cute ": 6667,
      "last month ": 6668,
      "try and ": 6669,
      "is a very ": 6670,
      "is a big ": 6671,
      "lead ": 6672,
      "leaded ": 6673,
      "marry ": 6674,
      "marketing ": 6675,
      ". '\n ' A ": 6676,
      ". '\n ' An": 6677,
      "ki ": 6678,
      "she is ": 6679,
      "food and ": 6680,
      "give her ": 6681,
      "! I am ": 6682,
      "! I hope ": 6683,
      "['I want to ": 6684,
      "['I would like to ": 6685,
      "today ? ' ' I ": 6686,
      "red roses ": 6687,
      ". '\n ' Wonderful ": 6688,
      "starting ": 6689,
      "problem is ": 6690,
      "? ' \" Yes ": 6691,
      ". And I ": 6692,
      ". And when ": 6693,
      "iling ": 6694,
      "iled ": 6695,
      "crea": 6696,
      "creating ": 6697,
      "tried to ": 6698,
      "to be late ": 6699,
      "closing ": 6700,
      "then . \"]": 6701,
      "I can go ": 6702,
      "andard ": 6703,
      "in a week ": 6704,
      "still have ": 6705,
      "stores ": 6706,
      "changing ": 6707,
      "call the ": 6708,
      "export ": 6709,
      "expecting ": 6710,
      "after that ": 6711,
      "I have been ": 6712,
      "little boy ": 6713,
      "My pleasure ": 6714,
      "correc": 6715,
      ". Do you think ": 6716,
      ". '\n ' You mean ": 6717,
      "? '\n ' Yes , please ": 6718,
      "? '\n ' Yes , it is ": 6719,
      "meet at the ": 6720,
      "served ": 6721,
      "long as ": 6722,
      ", sir . \"]": 6723,
      "if you like ": 6724,
      "if you want to ": 6725,
      ". He can ": 6726,
      ". He was ": 6727,
      ". He said ": 6728,
      "because the ": 6729,
      ". Who ": 6730,
      "lates ": 6731,
      "lated ": 6732,
      "mean to ": 6733,
      "feedback ": 6734,
      "wonders ": 6735,
      "their children ": 6736,
      "check the ": 6737,
      "England ": 6738,
      "year-": 6739,
      ". Con": 6740,
      "learn": 6741,
      "buy the ": 6742,
      "buy it ": 6743,
      "three times ": 6744,
      "three weeks ": 6745,
      "['What kind of ": 6746,
      "place is ": 6747,
      ". ' \" I'll ": 6748,
      "opening ": 6749,
      "tension ": 6750,
      "stairs ": 6751,
      "? I ’ m ": 6752,
      "? I don ’ t ": 6753,
      "? I mean ": 6754,
      "? I heard ": 6755,
      "watch TV ": 6756,
      "keep you ": 6757,
      "prac": 6758,
      "ssive ": 6759,
      ". '\n ' Hello ": 6760,
      "materi": 6761,
      "put a ": 6762,
      "put your ": 6763,
      "made the ": 6764,
      "made up ": 6765,
      "ters are ": 6766,
      "ask me ": 6767,
      ", but I ’ m ": 6768,
      "wait a minute ": 6769,
      "What's your ": 6770,
      "warm ": 6771,
      "gold ": 6772,
      "gotten ": 6773,
      "even though ": 6774,
      "hope so . ']": 6775,
      "grade ": 6776,
      "for me to ": 6777,
      "surf": 6778,
      "discount ": 6779,
      "ality ": 6780,
      "invited ": 6781,
      "investi": 6782,
      "invited to ": 6783,
      "You're welcome ": 6784,
      "business card ": 6785,
      ". \"\n ' I know ": 6786,
      ". '\n ' That is ": 6787,
      "quite a few ": 6788,
      "change them ": 6789,
      "wind ": 6790,
      "anywhere ": 6791,
      "ends meet ": 6792,
      "said that ": 6793,
      "impressed ": 6794,
      "sit down ": 6795,
      "does sound ": 6796,
      "ilding ": 6797,
      "around the ": 6798,
      "around here ": 6799,
      "go to bed ": 6800,
      "breaks ": 6801,
      "eymoon ": 6802,
      "driver ": 6803,
      "a little nervous ": 6804,
      ". '\n \" That's right ": 6805,
      ". '\n \" That's great ": 6806,
      ". '\n \" That's true ": 6807,
      "off the ": 6808,
      "off at the ": 6809,
      "5 % ": 6810,
      "tongue ": 6811,
      ". '\n ' Do you have ": 6812,
      ". '\n ' Do you have a ": 6813,
      ". I ’ m going to ": 6814,
      ". I ’ m sorry ": 6815,
      "period ": 6816,
      "Sorry , ": 6817,
      "the rece": 6818,
      "the resul": 6819,
      "stay in the ": 6820,
      "working for a ": 6821,
      "usually have ": 6822,
      "understood ": 6823,
      "believe it ": 6824,
      ". I am a ": 6825,
      ". I am sorry ": 6826,
      "specially ": 6827,
      "ceries ": 6828,
      "certain ": 6829,
      "common ": 6830,
      "soon . ']": 6831,
      "take a vacation ": 6832,
      "rental ": 6833,
      ". She is ": 6834,
      "oversea": 6835,
      ". You'd better ": 6836,
      "is it ? '\n \" ": 6837,
      "['Do you have ": 6838,
      "['Do you like ": 6839,
      "['Excuse me . Do you ": 6840,
      "player ": 6841,
      "Indi": 6842,
      "Insurance ": 6843,
      ". Tell me ": 6844,
      "you to dinner ": 6845,
      "should be able to ": 6846,
      "bird ": 6847,
      "birth ": 6848,
      "critici": 6849,
      "feet ": 6850,
      "may be ": 6851,
      "look at apartments ": 6852,
      "learn English ": 6853,
      "have you ever ": 6854,
      "sign the ": 6855,
      "know what the ": 6856,
      "! \"\n ' What ": 6857,
      "Americans ": 6858,
      "Like ": 6859,
      "Liu ": 6860,
      "flat ": 6861,
      "flying ": 6862,
      "having a big ": 6863,
      ". '\n ' Ok , ": 6864,
      ". '\n ' Our ": 6865,
      "listen": 6866,
      "? '\n ' Well , we ": 6867,
      ". '\n \" I know ": 6868,
      "bring you ": 6869,
      "great": 6870,
      "weak ": 6871,
      "energetic ": 6872,
      "for my wife ": 6873,
      "we have some ": 6874,
      "honeymoon ": 6875,
      ". Go ": 6876,
      "anghai ": 6877,
      "respec": 6878,
      "complex": 6879,
      "complain": 6880,
      "qualities ": 6881,
      "positive ": 6882,
      "staurant ": 6883,
      "different from ": 6884,
      "club ": 6885,
      "hunting ": 6886,
      ". I've got ": 6887,
      "in your country ": 6888,
      "We'd better ": 6889,
      "amn ": 6890,
      "fici": 6891,
      "fiction ": 6892,
      "animal ": 6893,
      "out of my ": 6894,
      "advanced ": 6895,
      "wedding reception ": 6896,
      "information is ": 6897,
      "basic ": 6898,
      ". You know , the ": 6899,
      "? \" ' I ": 6900,
      ". \"\n ' Thank you so much ": 6901,
      "choices ": 6902,
      "give me some advice ": 6903,
      "egal ": 6904,
      "wash ": 6905,
      ". '\n ' Is that ": 6906,
      ". '\n ' Is there ": 6907,
      "thinking of ": 6908,
      ". Would you like ": 6909,
      "personally ": 6910,
      "larly ": 6911,
      "took me ": 6912,
      ". Can you recommend ": 6913,
      ". We've ": 6914,
      "saw the ": 6915,
      "waiting for ": 6916,
      "waiting for you ": 6917,
      "waiting list ": 6918,
      "trainer ": 6919,
      ". Why don ’ t you ": 6920,
      "Definitely ": 6921,
      "climb": 6922,
      "the same as ": 6923,
      ". '\n ' May I ": 6924,
      ". \"\n ' Do you know ": 6925,
      "taxi , ": 6926,
      "came here ": 6927,
      "came back ": 6928,
      "window seat ": 6929,
      "Believe ": 6930,
      "Direc": 6931,
      "Didn't ": 6932,
      "Divid": 6933,
      "curren": 6934,
      "floors ": 6935,
      "mention ": 6936,
      "mentary ": 6937,
      ", that will be ": 6938,
      "orien": 6939,
      "origin": 6940,
      "chance to ": 6941,
      "exercises ": 6942,
      "['Good morning , sir ": 6943,
      "Anything else ": 6944,
      "is my birthday ": 6945,
      "abilities ": 6946,
      ". Thanks a lot ": 6947,
      "highly ": 6948,
      "higher than ": 6949,
      "full of ": 6950,
      "television ": 6951,
      "cryst": 6952,
      "huh ": 6953,
      "an exhibi": 6954,
      "aturally ": 6955,
      ". I hope you ": 6956,
      "they've ": 6957,
      "['Have you got ": 6958,
      "wonder if ": 6959,
      "writing ability ": 6960,
      "factory ": 6961,
      "porcel": 6962,
      "a very good ": 6963,
      "? '\n ' Not at all ": 6964,
      "cheer ": 6965,
      "chef ": 6966,
      "chequing ": 6967,
      "provided ": 6968,
      ". '\n ' And what ": 6969,
      "range of ": 6970,
      "practise ": 6971,
      "break-in ": 6972,
      "Contin": 6973,
      "Willi": 6974,
      "ient in ": 6975,
      "include ": 6976,
      "including ": 6977,
      "lligent ": 6978,
      "a pity ": 6979,
      "suitable ": 6980,
      ". In the ": 6981,
      "quarters ": 6982,
      "tell you what ": 6983,
      "seeing you ": 6984,
      "International ": 6985,
      "operation ": 6986,
      "to find a ": 6987,
      "to find out ": 6988,
      "me a favor ": 6989,
      "Is there anything ": 6990,
      "hundred and ": 6991,
      "economics ": 6992,
      "19 ": 6993,
      "daylight ": 6994,
      "voting ": 6995,
      "antiques ": 6996,
      "a great place ": 6997,
      "for two years ": 6998,
      "main course ": 6999,
      "do you do ? ": 7000,
      ". '\n ' Here you are ": 7001,
      "graduated ": 7002,
      "air condi": 7003,
      "election ": 7004,
      "electri": 7005,
      "foods ": 7006,
      "falls ": 7007,
      "older than ": 7008,
      "thanks for ": 7009,
      "ential ": 7010,
      "sunshine ": 7011,
      "direction ": 7012,
      "cheaper ": 7013,
      "burbs ": 7014,
      "something to drink ": 7015,
      "regularly ": 7016,
      "in front of the ": 7017,
      "allowed ": 7018,
      ". ' ' How much ": 7019,
      ". How much is it ": 7020,
      "seem to ": 7021,
      ". By the way , ": 7022,
      "discussion ": 7023,
      "finish my ": 7024,
      "handle it ": 7025,
      "Guangz": 7026,
      "duce the price ": 7027,
      "are you going to do ": 7028,
      "difference between ": 7029,
      "Austra": 7030,
      "August ": 7031,
      "awful ": 7032,
      "drop ": 7033,
      "daugh": 7034,
      "illegal ": 7035,
      "packing ": 7036,
      "romantic ": 7037,
      "introduc": 7038,
      ". '\n \" Here's ": 7039,
      "visiting ": 7040,
      "visitors ": 7041,
      ". Anyway ": 7042,
      ". Anyway , ": 7043,
      "pair of shoes ": 7044,
      "responsibilities ": 7045,
      "Quite ": 7046,
      "backpack ": 7047,
      "background ": 7048,
      "effor": 7049,
      "stick ": 7050,
      "virus ": 7051,
      "thoughts ": 7052,
      "though , ": 7053,
      "aren't you ": 7054,
      "violent ": 7055,
      "With the ": 7056,
      "15 minutes ": 7057,
      "Business ": 7058,
      "Building ": 7059,
      "Will you ": 7060,
      "gency ": 7061,
      "image ": 7062,
      "normal ": 7063,
      "nearest ": 7064,
      "near the ": 7065,
      "child ": 7066,
      "spoken ": 7067,
      "confidence ": 7068,
      "websites ": 7069,
      "counter-offer ": 7070,
      "each other half": 7071,
      "involved ": 7072,
      "Professor Clar": 7073,
      "/ C ": 7074,
      "June 20 ": 7075,
      "clearly ": 7076,
      "smaller ": 7077,
      "smile ": 7078,
      "three-": 7079,
      "require ": 7080,
      "reserve a ": 7081,
      "lives in ": 7082,
      "strat": 7083,
      "supermarket ": 7084,
      "model ": 7085,
      "am I supposed to ": 7086,
      "post office ": 7087,
      "? '\n ' I have no idea ": 7088,
      "noticed ": 7089,
      "a break-in ": 7090,
      "branch ": 7091,
      "passed the ": 7092,
      "talk to him ": 7093,
      ". What's the matter ": 7094,
      "continue ": 7095,
      "organization ": 7096,
      "Banking ": 7097,
      "Brian ": 7098,
      "Give me ": 7099,
      "L / C ": 7100,
      "Student ": 7101,
      "circu": 7102,
      "groceries ": 7103,
      "payment ": 7104,
      "intelligent ": 7105,
      "ordinary ": 7106,
      "willing to ": 7107,
      "abortion ": 7108,
      "extra ": 7109,
      "very kind of you ": 7110,
      "built ": 7111,
      "in the suburbs ": 7112,
      "points ": 7113,
      "confirm ": 7114,
      "performance ": 7115,
      "jumping ": 7116,
      "apply for a ": 7117,
      "majored in ": 7118,
      "human resources ": 7119,
      "arrangements ": 7120,
      "technology ": 7121,
      "Disneyworld ": 7122,
      "suggestions ": 7123,
      "Brazil ": 7124,
      "Frank ": 7125,
      "Helen ": 7126,
      "World ": 7127,
      "bene": 7128,
      "eggplants ": 7129,
      "mirror ": 7130,
      "proof ": 7131,
      "sweater ": 7132,
      "insist ": 7133,
      "insuran": 7134,
      "statement ": 7135,
      "mobile phone ": 7136,
      "[\"Good evening ": 7137,
      "pop music ": 7138,
      "cigarettes ": 7139,
      "travell": 7140,
      ", Miss ": 7141,
      "appetite ": 7142,
      "supporting ": 7143,
      "colleagues ": 7144,
      "applying ": 7145,
      "cooperate ": 7146,
      "amount ": 7147,
      "falling apart ": 7148,
      "bedroom apartment ": 7149,
      "Angel": 7150,
      "Credit ": 7151,
      "George ": 7152,
      "Italian ": 7153,
      "Jordan ": 7154,
      "Korea ": 7155,
      "Robert ": 7156,
      "Type ": 7157,
      "Tomorrow ": 7158,
      "That'll be ": 7159,
      "Winter ": 7160,
      "hell with you ": 7161,
      "journey ": 7162,
      "photo": 7163,
      "smart ": 7164,
      "annual ": 7165,
      ", young man ": 7166,
      "engine": 7167,
      "it rains ": 7168,
      "as much as ": 7169,
      "assured ": 7170,
      "examine ": 7171,
      "spare time ": 7172,
      "procedures ": 7173,
      "middle ": 7174,
      "bottle of ": 7175,
      "candidate ": 7176,
      "Chinatown ": 7177,
      "inform you ": 7178,
      "knowledge ": 7179,
      "crowded ": 7180,
      "United States ": 7181,
      ", ma'am ": 7182,
      "aisle seat ": 7183,
      "recognize ": 7184,
      "sculpture ": 7185,
      "447-9": 7186,
      "Africa ": 7187,
      "Charles ": 7188,
      "Hollywood ": 7189,
      "Service ": 7190,
      "Washing": 7191,
      "bonus ": 7192,
      "cinema ": 7193,
      "dear , ": 7194,
      "ilets are ": 7195,
      "natural ": 7196,
      "slowly ": 7197,
      "wrote ": 7198,
      "inneapolis ": 7199,
      "orange juice ": 7200,
      "plumbing ": 7201,
      "behavior ": 7202,
      "negoti": 7203,
      "proficient in ": 7204,
      "? \"\n ' To hell with you ": 7205,
      ". What types of ": 7206,
      ", Mummy ": 7207,
      "correctly ": 7208,
      "You're welcome . \"]": 7209,
      "crystal ": 7210,
      "Williams ": 7211,
      "air condition": 7212,
      "Guangzhou": 7213,
      "Professor Clark ": 7214,
      "Washington ": 7215,
      " . T": 7216,
      "-U": 7217,
      "-up ": 7218,
      "-made ": 7219,
      "-free ": 7220,
      "-virus ": 7221,
      ".We ": 7222,
      ".This is ": 7223,
      ".Besides ": 7224,
      "13": 7225,
      "17 ": 7226,
      "1,000 ": 7227,
      "36 ": 7228,
      "5-": 7229,
      "67": 7230,
      "600 ": 7231,
      "6:30 ": 7232,
      "80 ": 7233,
      "98": 7234,
      "90 ": 7235,
      "AB": 7236,
      "Are ": 7237,
      "Aren": 7238,
      "Ba": 7239,
      "Bi": 7240,
      "Bas": 7241,
      "Bee": 7242,
      "Bank ": 7243,
      "Brown ": 7244,
      "Ca": 7245,
      "Cor": 7246,
      "Coun": 7247,
      "CV ": 7248,
      "Clin": 7249,
      "Could I have ": 7250,
      "Dad ": 7251,
      "Dave ": 7252,
      "Dil": 7253,
      "Dali": 7254,
      "E ": 7255,
      "Foo": 7256,
      "From ": 7257,
      "FM ": 7258,
      "Festi": 7259,
      "Gett": 7260,
      "Hall ": 7261,
      "Hi , ": 7262,
      "HR ": 7263,
      "Henry ": 7264,
      "Im": 7265,
      "Isa": 7266,
      "ID ": 7267,
      "J ": 7268,
      "Je": 7269,
      "Jac": 7270,
      "Jing": 7271,
      "Keep ": 7272,
      "Le": 7273,
      "LA ": 7274,
      "Los ": 7275,
      "Me": 7276,
      "Mall ": 7277,
      "Mars ": 7278,
      "Madam ": 7279,
      "Mexic": 7280,
      "Non": 7281,
      "Net ": 7282,
      "Oscar": 7283,
      "O . ": 7284,
      "Only ": 7285,
      "P ": 7286,
      "Pear ": 7287,
      "Qing": 7288,
      "Rac": 7289,
      "Res": 7290,
      "Rel": 7291,
      "Roc": 7292,
      "S ": 7293,
      "Sar": 7294,
      "Sit ": 7295,
      "Sally ": 7296,
      "Some": 7297,
      "She's ": 7298,
      "Sense ": 7299,
      "Ta": 7300,
      "Te": 7301,
      "Tr": 7302,
      "Tic": 7303,
      "Try ": 7304,
      "Um , ": 7305,
      "Vi": 7306,
      "Vide": 7307,
      "Vince ": 7308,
      "Who": 7309,
      "West ": 7310,
      "Wester": 7311,
      "Wang ": 7312,
      "Wonderful ": 7313,
      "Zea": 7314,
      "ah ": 7315,
      "amon": 7316,
      "ahea": 7317,
      "ashes ": 7318,
      "awards ": 7319,
      "average ": 7320,
      "ber": 7321,
      "bone ": 7322,
      "bid ": 7323,
      "borrow ": 7324,
      "bread ": 7325,
      "bert ": 7326,
      "bicy": 7327,
      "cro": 7328,
      "cate ": 7329,
      "cru": 7330,
      "cles ": 7331,
      "dg": 7332,
      "dor": 7333,
      "don ": 7334,
      "dat": 7335,
      "dad ": 7336,
      "dare you ": 7337,
      "ded in ": 7338,
      "dao ": 7339,
      "dama": 7340,
      "deep ": 7341,
      "darling ": 7342,
      "em ": 7343,
      "ep ": 7344,
      "emp": 7345,
      "emon": 7346,
      "emer": 7347,
      "fall ": 7348,
      "fear ": 7349,
      "fee ": 7350,
      "fits ": 7351,
      "fed up ": 7352,
      "gor": 7353,
      "gis ": 7354,
      "gay ": 7355,
      "gas": 7356,
      "gant ": 7357,
      "gran": 7358,
      "good": 7359,
      "goodbye ": 7360,
      "hy": 7361,
      "hen ": 7362,
      "hic": 7363,
      "hom": 7364,
      "heat ": 7365,
      "hang ": 7366,
      "ike ": 7367,
      "ily ": 7368,
      "ial ": 7369,
      "ither ": 7370,
      "ience ": 7371,
      "ipt ": 7372,
      "ign": 7373,
      "ja": 7374,
      "jer": 7375,
      "jects ": 7376,
      "kic": 7377,
      "lv": 7378,
      "len": 7379,
      "lay ": 7380,
      "lun": 7381,
      "lens ": 7382,
      "mer ": 7383,
      "min ": 7384,
      "mally ": 7385,
      "mic ": 7386,
      "micro": 7387,
      "nar": 7388,
      "njo": 7389,
      "nine ": 7390,
      "nine": 7391,
      "naturally ": 7392,
      "ol ": 7393,
      "op ": 7394,
      "oci": 7395,
      "ology ": 7396,
      "pow": 7397,
      "pli": 7398,
      "pare ": 7399,
      "pun": 7400,
      "pear": 7401,
      "psy": 7402,
      "pants ": 7403,
      "row ": 7404,
      "rare ": 7405,
      "sin ": 7406,
      "snow ": 7407,
      "sma": 7408,
      "sme": 7409,
      "shar": 7410,
      "sick": 7411,
      "sco ": 7412,
      "tch ": 7413,
      "tect ": 7414,
      "tters ": 7415,
      "umber ": 7416,
      "usted ": 7417,
      "usher ": 7418,
      "van ": 7419,
      "vic": 7420,
      "vation ": 7421,
      "vator ": 7422,
      "ww": 7423,
      "wo ": 7424,
      "wow ": 7425,
      "ware ": 7426,
      "wall": 7427,
      "xth ": 7428,
      "x , ": 7429,
      "yle ": 7430,
      "yers ": 7431,
      "yman ": 7432,
      "zart ": 7433,
      "zoo ": 7434,
      "zhen ": 7435,
      "¥ ": 7436,
      "“ ": 7437,
      "e Ch": 7438,
      "t , ": 7439,
      "s the ": 7440,
      "thi": 7441,
      "thand ": 7442,
      "that": 7443,
      "thick ": 7444,
      "inally ": 7445,
      "income ": 7446,
      "insul": 7447,
      ". what ": 7448,
      ". Can ": 7449,
      ". Rea": 7450,
      ". OK , ": 7451,
      ". Oh , I ": 7452,
      ". Peter ": 7453,
      ". Perhaps ": 7454,
      ". Plu": 7455,
      "y your ": 7456,
      "y . \"]": 7457,
      "o ’ ": 7458,
      "o TV ": 7459,
      " ' re ": 7460,
      "erce ": 7461,
      "erry ": 7462,
      "erstone ": 7463,
      "ana": 7464,
      "anan": 7465,
      "anet ": 7466,
      "anal": 7467,
      "ances ": 7468,
      ", T": 7469,
      ", as ": 7470,
      ", there ": 7471,
      ", here ": 7472,
      ", in the ": 7473,
      ", two ": 7474,
      ", are you ": 7475,
      ", when ": 7476,
      ", say ": 7477,
      ", things ": 7478,
      ", did you ": 7479,
      ", remember ": 7480,
      ", I'm afraid ": 7481,
      ", he's ": 7482,
      ", isn't ": 7483,
      ", is that ": 7484,
      ", ok ": 7485,
      ", of course ": 7486,
      ", John ": 7487,
      ", miss ": 7488,
      ", personal ": 7489,
      ", anyway ": 7490,
      ", everyone ": 7491,
      ", isn ’ t ": 7492,
      ", Tim ": 7493,
      ", Kar": 7494,
      ", may I ": 7495,
      ", uh ": 7496,
      "you'd better ": 7497,
      "on-": 7498,
      "ona ": 7499,
      "oned ": 7500,
      "I see ": 7501,
      "I need ": 7502,
      "I ’ ll ": 7503,
      "I ’ Ve ": 7504,
      "I haven't ": 7505,
      "I didn't know ": 7506,
      "ored ": 7507,
      "or's ": 7508,
      "orning ": 7509,
      "ority ": 7510,
      "orders ": 7511,
      "you with ": 7512,
      "you some ": 7513,
      "you want ": 7514,
      "you did ": 7515,
      "you need ": 7516,
      "you feel ": 7517,
      "you would like to ": 7518,
      "you may ": 7519,
      "you had a ": 7520,
      " '\n ' I ": 7521,
      "lla ": 7522,
      "llet": 7523,
      "hair": 7524,
      "hass": 7525,
      "hasn't ": 7526,
      "habits ": 7527,
      "hasn ’ t ": 7528,
      "the 1": 7529,
      "the t": 7530,
      "the ro": 7531,
      "the ho": 7532,
      "the bi": 7533,
      "the wa": 7534,
      "the next ": 7535,
      "the line ": 7536,
      "the message ": 7537,
      "the financial ": 7538,
      "the check out ": 7539,
      "en-": 7540,
      "entr": 7541,
      "endent ": 7542,
      "enroll ": 7543,
      "enwich ": 7544,
      "enough , ": 7545,
      "to one ": 7546,
      "to think ": 7547,
      "to another ": 7548,
      "to go to ": 7549,
      "to let ": 7550,
      "to bring ": 7551,
      "to China ": 7552,
      "to our company ": 7553,
      "to cover ": 7554,
      "to listen to ": 7555,
      "to save ": 7556,
      "to downtown ": 7557,
      "to fix the ": 7558,
      "ing you ": 7559,
      "ing a ": 7560,
      "arti": 7561,
      "area": 7562,
      "arch": 7563,
      "argu": 7564,
      "ard of ": 7565,
      "a and ": 7566,
      "a se": 7567,
      "a de": 7568,
      "a fi": 7569,
      "a so": 7570,
      "a red ": 7571,
      "a Chinese ": 7572,
      "a house ": 7573,
      "a computer ": 7574,
      "a list ": 7575,
      "a hospital ": 7576,
      "a short ": 7577,
      "a quick ": 7578,
      "a well-": 7579,
      "a year , ": 7580,
      "ret ": 7581,
      "reen ": 7582,
      "repe": 7583,
      "retur": 7584,
      "rements ": 7585,
      "retired ": 7586,
      "retreat ": 7587,
      "m and ": 7588,
      "m school ": 7589,
      "k and ": 7590,
      "is on ": 7591,
      "is for ": 7592,
      "is all ": 7593,
      "is right ": 7594,
      "is in the ": 7595,
      "is over ": 7596,
      "is still ": 7597,
      "is fine ": 7598,
      "is over there ": 7599,
      "is better than ": 7600,
      "is driving ": 7601,
      "is incredible ": 7602,
      "is falling apart ": 7603,
      ". '\n ' Do ": 7604,
      ". '\n ' Please ": 7605,
      ". '\n ' They ": 7606,
      ". '\n ' that ’ s ": 7607,
      ". '\n ' In ": 7608,
      ". '\n ' Let ’ s ": 7609,
      ". '\n ' well , ": 7610,
      ". '\n ' Tell me ": 7611,
      ". '\n ' Congratulations ": 7612,
      ". '\n ' Because ": 7613,
      ". '\n ' By the way ": 7614,
      "me there ": 7615,
      "at about ": 7616,
      "at noon ": 7617,
      "at another ": 7618,
      "at 8 ": 7619,
      "at college ": 7620,
      "at seven ": 7621,
      "at Festi": 7622,
      "till ": 7623,
      "tial ": 7624,
      "timi": 7625,
      "tish ": 7626,
      "tively ": 7627,
      "title ": 7628,
      "ed you ": 7629,
      "on . ": 7630,
      "on today ": 7631,
      "on their ": 7632,
      "on business ": 7633,
      "on special ": 7634,
      "on July ": 7635,
      "on August ": 7636,
      "or you'll ": 7637,
      "or tea ": 7638,
      "it be ": 7639,
      "it can ": 7640,
      "it all ": 7641,
      "it here ": 7642,
      "it been ": 7643,
      "it over ": 7644,
      "it is": 7645,
      "it . They ": 7646,
      "it took ": 7647,
      "it says ": 7648,
      "it ! I'm ": 7649,
      "it gets ": 7650,
      "and have ": 7651,
      "and ac": 7652,
      "and one ": 7653,
      "and our ": 7654,
      "and mi": 7655,
      "and some ": 7656,
      "and check ": 7657,
      "and I am ": 7658,
      "and we can ": 7659,
      "and turn ": 7660,
      "and telephone ": 7661,
      "and vegetables ": 7662,
      "and so on ": 7663,
      "and social ": 7664,
      "and energetic ": 7665,
      "and spoken ": 7666,
      "an easy ": 7667,
      "an apartment ": 7668,
      "an online ": 7669,
      "an assistant ": 7670,
      "an agreement ": 7671,
      "an Fran": 7672,
      "an aisle seat ": 7673,
      "lik": 7674,
      "lice ": 7675,
      "lize ": 7676,
      "lived ": 7677,
      "lish , ": 7678,
      "in to ": 7679,
      "in other ": 7680,
      "in two ": 7681,
      "in many ": 7682,
      "in Chinese ": 7683,
      "in line ": 7684,
      "in case ": 7685,
      "in our company ": 7686,
      "in college ": 7687,
      "in three days ": 7688,
      "in advance ": 7689,
      "ooth ": 7690,
      "? '\n ' Y": 7691,
      "? '\n ' But ": 7692,
      "? '\n ' This ": 7693,
      "? '\n ' Can you ": 7694,
      "? '\n ' Here ": 7695,
      "? '\n ' Don ’ t ": 7696,
      "? '\n ' Right ": 7697,
      "? '\n ' Your ": 7698,
      "? '\n ' Hello ": 7699,
      "? '\n ' Nothing ": 7700,
      "? '\n ' Would you like ": 7701,
      "? '\n ' Yes.": 7702,
      "st the ": 7703,
      "stle ": 7704,
      "state ": 7705,
      "station ": 7706,
      "stran": 7707,
      "steal ": 7708,
      "strange ": 7709,
      "stination ": 7710,
      "’ am ": 7711,
      "of work ": 7712,
      "of two ": 7713,
      "of his ": 7714,
      "of service ": 7715,
      "wimming ": 7716,
      "river ": 7717,
      "risk ": 7718,
      "ridor ": 7719,
      "for now ": 7720,
      "for any ": 7721,
      "for help ": 7722,
      "for business ": 7723,
      "for another ": 7724,
      "for free ": 7725,
      "for sto": 7726,
      "for 2 ": 7727,
      "for rent ": 7728,
      "for an hour ": 7729,
      "for almost ": 7730,
      "for several ": 7731,
      "for $ 1": 7732,
      "for breakfast ": 7733,
      "These ": 7734,
      "Thank you.": 7735,
      "have just ": 7736,
      "have other ": 7737,
      "have no ": 7738,
      "have enough ": 7739,
      "that have ": 7740,
      "that my ": 7741,
      "that would ": 7742,
      "that I have ": 7743,
      "that sounds ": 7744,
      "that we can ": 7745,
      "that there is ": 7746,
      "that means ": 7747,
      "that we should ": 7748,
      "icker ": 7749,
      "ica , ": 7750,
      "ichael ": 7751,
      "['That ": 7752,
      "['Well , ": 7753,
      "['My ": 7754,
      "['Please ": 7755,
      "['This is ": 7756,
      "['Come ": 7757,
      "['John ": 7758,
      "['Who ": 7759,
      "['It ’ s ": 7760,
      "['Next ": 7761,
      "['Tell me ": 7762,
      "['Can I have ": 7763,
      "['Is this ": 7764,
      "['hi , ": 7765,
      "['Is there anything ": 7766,
      "ples ": 7767,
      "plays ": 7768,
      "are just ": 7769,
      "are right ": 7770,
      "are $ ": 7771,
      "are these ": 7772,
      "beat ": 7773,
      "belong ": 7774,
      "becoming ": 7775,
      "actual ": 7776,
      ". I work ": 7777,
      ". I must ": 7778,
      ". I thought ": 7779,
      ". I heard ": 7780,
      ". I won't ": 7781,
      ". I took ": 7782,
      ". I wish ": 7783,
      ". I forgot ": 7784,
      ". I haven ’ t ": 7785,
      ". I didn't know ": 7786,
      ". I found it ": 7787,
      "p the ": 7788,
      "p . m . ": 7789,
      "ght.": 7790,
      "ould we ": 7791,
      "th Avenue ": 7792,
      "ot , ": 7793,
      "ot it ": 7794,
      "be more than ": 7795,
      "rock": 7796,
      "roast ": 7797,
      "robb": 7798,
      ". \"\n ' O": 7799,
      ". \"\n ' Is ": 7800,
      ". \"\n ' Oh ": 7801,
      ". \"\n ' Please ": 7802,
      ". \"\n ' Just ": 7803,
      ". \"\n ' Yeah , ": 7804,
      ". \"\n ' A ": 7805,
      ". \"\n ' He ": 7806,
      ". \"\n ' Did you ": 7807,
      ". \"\n ' There ": 7808,
      ". \"\n ' Great ": 7809,
      ". \"\n ' Certainly ": 7810,
      ". \"\n ' Which ": 7811,
      ". \"\n ' Have you ": 7812,
      ". \"\n ' Ok ": 7813,
      ". \"\n ' Sounds ": 7814,
      ". \"\n ' Me too ": 7815,
      "abstr": 7816,
      "'t you ": 7817,
      "se.": 7818,
      "self": 7819,
      "do is ": 7820,
      "do this ": 7821,
      "do well ": 7822,
      "do the same ": 7823,
      "do me a favor ": 7824,
      "sight ": 7825,
      "shu": 7826,
      "shment ": 7827,
      "sheep ": 7828,
      "shanghai ": 7829,
      "sun ": 7830,
      "suff": 7831,
      "summ": 7832,
      "your company ": 7833,
      "your first ": 7834,
      "your order ": 7835,
      "your ticket ": 7836,
      "your family ": 7837,
      "your brother ": 7838,
      "out and ": 7839,
      "out there ": 7840,
      "tasted ": 7841,
      ". \"\n \" How ": 7842,
      ". \"\n \" I've ": 7843,
      ". \"\n \" Sure ": 7844,
      ". \"\n \" Oh ": 7845,
      ". \"\n \" I am ": 7846,
      ". \"\n \" And ": 7847,
      ". \"\n \" I'm afraid ": 7848,
      ". \"\n \" I don't know ": 7849,
      ". \"\n \" All right ": 7850,
      ". \"\n \" Ok ": 7851,
      "die ": 7852,
      "dish ": 7853,
      "dize ": 7854,
      "as I ": 7855,
      "as good ": 7856,
      "as many ": 7857,
      "as possible ": 7858,
      "can make ": 7859,
      "can do it ": 7860,
      "can make you ": 7861,
      ". '\n \" L": 7862,
      ". '\n \" S": 7863,
      ". '\n \" What ": 7864,
      ". '\n \" Yes ": 7865,
      ". '\n \" Do you ": 7866,
      ". '\n \" I've ": 7867,
      ". '\n \" OK ": 7868,
      ". '\n \" If ": 7869,
      ". '\n \" A ": 7870,
      ". '\n \" No , ": 7871,
      ". '\n \" Great ": 7872,
      ". '\n \" Your ": 7873,
      "male ": 7874,
      "master ": 7875,
      "magni": 7876,
      "maxi": 7877,
      "ell him ": 7878,
      "che ": 7879,
      "chos": 7880,
      "chron": 7881,
      "my job ": 7882,
      "my money ": 7883,
      "my turn ": 7884,
      "my family ": 7885,
      "my birthday ": 7886,
      "my bill ": 7887,
      "my brother ": 7888,
      "my husband ": 7889,
      "my current ": 7890,
      ", I like ": 7891,
      ", I have a ": 7892,
      ", I want to ": 7893,
      ", I could ": 7894,
      ", I love ": 7895,
      ", I made ": 7896,
      ", I ’ d ": 7897,
      ", I thought ": 7898,
      ", I may ": 7899,
      ", I can ’ t ": 7900,
      ", I haven't ": 7901,
      ", I suppose ": 7902,
      "like your ": 7903,
      "we will ": 7904,
      "we just ": 7905,
      "we don't ": 7906,
      "we need ": 7907,
      "we will be ": 7908,
      "we never ": 7909,
      "What time ": 7910,
      "? '\n \" You ": 7911,
      "? '\n \" But ": 7912,
      "? '\n \" I don't ": 7913,
      "? '\n \" I'd ": 7914,
      "? '\n \" Yeah , ": 7915,
      "? '\n \" Don't ": 7916,
      "? '\n \" Of course ": 7917,
      "? '\n \" Then ": 7918,
      "? '\n \" He's ": 7919,
      "? '\n \" Nothing ": 7920,
      "? '\n \" They're ": 7921,
      "leg ": 7922,
      "letting ": 7923,
      "with work ": 7924,
      "with two ": 7925,
      "with something ": 7926,
      "! No ": 7927,
      "! I'll ": 7928,
      "! That's ": 7929,
      "! My ": 7930,
      "! This ": 7931,
      "! A ": 7932,
      "! Don ’ t ": 7933,
      "! Your ": 7934,
      "! Come on ": 7935,
      "! It ’ s ": 7936,
      "! Would you like ": 7937,
      "one more ": 7938,
      "one by ": 7939,
      "one of those ": 7940,
      "one or two ": 7941,
      "alk ": 7942,
      "alace ": 7943,
      "this up ": 7944,
      "this job ": 7945,
      "this kind of ": 7946,
      "this is my ": 7947,
      "this Friday ": 7948,
      "it.It ": 7949,
      "ration ": 7950,
      "rail": 7951,
      "so late ": 7952,
      "so happy ": 7953,
      "so busy ": 7954,
      "so tired ": 7955,
      "so many people ": 7956,
      "so cool ": 7957,
      "? B": 7958,
      "? H": 7959,
      "? That's ": 7960,
      "? I think ": 7961,
      "? He ": 7962,
      "? She ": 7963,
      "? It ’ s ": 7964,
      "? Is that ": 7965,
      "? Or ": 7966,
      "esome ": 7967,
      "about our ": 7968,
      "about his ": 7969,
      "about yourself ": 7970,
      "about an hour ": 7971,
      "elve ": 7972,
      "all this ": 7973,
      "all those ": 7974,
      "all of them ": 7975,
      "all of you ": 7976,
      "all kinds of ": 7977,
      "ective ": 7978,
      "will win ": 7979,
      "will arrive ": 7980,
      "ter's ": 7981,
      "terly ": 7982,
      "terror ": 7983,
      "think I'm ": 7984,
      "know . ']": 7985,
      "know something ": 7986,
      "know that the ": 7987,
      "day . '\n ' I ": 7988,
      "day off ": 7989,
      "day at work ": 7990,
      "aggis ": 7991,
      ". These ": 7992,
      ". Their ": 7993,
      "worst ": 7994,
      "any help ": 7995,
      "any better ": 7996,
      "any cheaper ": 7997,
      ". In": 7998,
      "lotion ": 7999,
      "unci": 8000,
      "unleaded ": 8001,
      "ext": 8002,
      "exper": 8003,
      "excuse me ": 8004,
      "exhibi": 8005,
      "express ": 8006,
      "external ": 8007,
      "’ s not ": 8008,
      "’ s up ": 8009,
      "me-": 8010,
      "mean": 8011,
      "meet me ": 8012,
      "mega": 8013,
      ". Welcome ": 8014,
      ". Wang ": 8015,
      "get one ": 8016,
      "get there ": 8017,
      "get back ": 8018,
      "get married ": 8019,
      "get started ": 8020,
      "get ? \"\n ' No ": 8021,
      "go back ": 8022,
      "but it's ": 8023,
      "fore": 8024,
      "ford ": 8025,
      "forget ": 8026,
      "form , ": 8027,
      "forget to ": 8028,
      "king up ": 8029,
      "king University ": 8030,
      "not to ": 8031,
      "not a ": 8032,
      "not go ": 8033,
      "not really ": 8034,
      "not too ": 8035,
      "not only ": 8036,
      "not always ": 8037,
      "not expensive ": 8038,
      "not being ": 8039,
      "not to be late ": 8040,
      "very interesting ": 8041,
      "very helpful ": 8042,
      "space ": 8043,
      "spicy ": 8044,
      "eel ": 8045,
      "was it ": 8046,
      "was that ": 8047,
      "was wondering if you ": 8048,
      "there and ": 8049,
      "there in ": 8050,
      "there . ']": 8051,
      "there ? ' ' ": 8052,
      "there in the ": 8053,
      "? ' ' This ": 8054,
      "? ' ' I think ": 8055,
      "? ' ' Just ": 8056,
      "? ' ' I am ": 8057,
      "? ' ' Yeah , ": 8058,
      "? ' ' No , ": 8059,
      "? ' ' He ": 8060,
      "? ' ' She ": 8061,
      "? ' ' Some ": 8062,
      ". ' ' A": 8063,
      ". ' ' But ": 8064,
      ". ' ' Do you ": 8065,
      ". ' ' Yeah ": 8066,
      ". ' ' And ": 8067,
      ". ' ' Are you ": 8068,
      ". ' ' Here ": 8069,
      ". ' ' Okay ": 8070,
      ". ' ' Which ": 8071,
      ". ' ' That ’ s ": 8072,
      ". ' ' My pleasure ": 8073,
      "here to ": 8074,
      "here is ": 8075,
      "here is the ": 8076,
      "here is your ": 8077,
      "lau": 8078,
      "lag ": 8079,
      "lake ": 8080,
      "mom ": 8081,
      "moves ": 8082,
      "mostly ": 8083,
      ", but they ": 8084,
      ", but she ": 8085,
      ", but it is ": 8086,
      ", but I am ": 8087,
      ", but let's ": 8088,
      ", but he's ": 8089,
      ", but I'll be ": 8090,
      "just like ": 8091,
      "just want to ": 8092,
      "just don ’ t ": 8093,
      "just went ": 8094,
      "just have to wait ": 8095,
      "but": 8096,
      "busin": 8097,
      "bubble ": 8098,
      "bullet": 8099,
      "mory ": 8100,
      "proper ": 8101,
      "progre": 8102,
      "what is ": 8103,
      "what ? '\n ' ": 8104,
      "what she ": 8105,
      "what kind of ": 8106,
      "what I am ": 8107,
      "what do you think ": 8108,
      "up ! ": 8109,
      "up , and ": 8110,
      "up . B": 8111,
      "dele": 8112,
      "depressed ": 8113,
      "desig": 8114,
      "dezhen ": 8115,
      "destination ": 8116,
      "good . \"]": 8117,
      "good for you ": 8118,
      "right . You ": 8119,
      "do you eat ": 8120,
      "do you drink ": 8121,
      "hill ": 8122,
      "hike ": 8123,
      "hiding ": 8124,
      "he is ": 8125,
      "he might ": 8126,
      "he won't ": 8127,
      "in the fin": 8128,
      "in the office ": 8129,
      "in the house ": 8130,
      "in the class ": 8131,
      "in the city ": 8132,
      "in the window ": 8133,
      "in the market ": 8134,
      "in the kitchen ": 8135,
      "in the newspaper ": 8136,
      "in the sea ": 8137,
      "in the garden ": 8138,
      "admi": 8139,
      "adays ": 8140,
      "adju": 8141,
      "time z": 8142,
      "time and ": 8143,
      "quake ": 8144,
      "quicker ": 8145,
      "would the ": 8146,
      "would help ": 8147,
      "would never ": 8148,
      "would cost ": 8149,
      "[\"Wh": 8150,
      "[\"Why ": 8151,
      "[\"Excuse me ": 8152,
      "fingers ": 8153,
      "? \"\n \" I'll ": 8154,
      "? \"\n \" Well , ": 8155,
      "? \"\n \" it's ": 8156,
      "? \"\n \" He ": 8157,
      "vil ": 8158,
      "vide": 8159,
      "vious ": 8160,
      "ffice ": 8161,
      "mix ": 8162,
      "some of the ": 8163,
      "some other ": 8164,
      "some new ": 8165,
      "some Chinese food ": 8166,
      "really nice ": 8167,
      "really hard ": 8168,
      "really like the ": 8169,
      "really hate ": 8170,
      "really looking forward to ": 8171,
      "poker ": 8172,
      "pocket ": 8173,
      "ed to my ": 8174,
      "ed to meet you ": 8175,
      "caused ": 8176,
      "want it ": 8177,
      "see that ": 8178,
      "see . Let me ": 8179,
      "see a movie ": 8180,
      "don't think ": 8181,
      ", and a ": 8182,
      ", and an ": 8183,
      ", and they ": 8184,
      ", and I'll ": 8185,
      ", and it's ": 8186,
      ", and no ": 8187,
      ", and she ": 8188,
      "sales": 8189,
      ". Ad": 8190,
      ". At ": 8191,
      ". Alright ": 8192,
      "parts ": 8193,
      "Do you think ": 8194,
      "take that ": 8195,
      "take part ": 8196,
      "much is the ": 8197,
      "too . ']": 8198,
      "too busy ": 8199,
      "too far ": 8200,
      "fight ": 8201,
      "files ": 8202,
      "filling ": 8203,
      ". '\n ' I also ": 8204,
      ". '\n ' I don ’ t ": 8205,
      ". '\n ' I love ": 8206,
      ". '\n ' I didn ’ t ": 8207,
      ". '\n ' I wish ": 8208,
      ". '\n ' I don ’ t think ": 8209,
      "conv": 8210,
      "confu": 8211,
      "consul": 8212,
      "contro": 8213,
      "? '\n ' I do ": 8214,
      "? '\n ' I will ": 8215,
      "? \"\n ' What ": 8216,
      "? \"\n ' OK ": 8217,
      "? \"\n ' I can ": 8218,
      "? \"\n ' My ": 8219,
      "? \"\n ' You can ": 8220,
      "from you ": 8221,
      "from work ": 8222,
      "from other ": 8223,
      "from him ": 8224,
      "from Tokyo ": 8225,
      "perman": 8226,
      "perform ": 8227,
      "should go to ": 8228,
      "should I do ": 8229,
      "should not be ": 8230,
      "if the ": 8231,
      "if it ": 8232,
      "if I am ": 8233,
      "if you're ": 8234,
      "trou": 8235,
      "tron": 8236,
      "tray ": 8237,
      "they have ": 8238,
      "ty dollars ": 8239,
      "compati": 8240,
      "use it ": 8241,
      "use my ": 8242,
      "I'll come ": 8243,
      "more time ": 8244,
      "precious ": 8245,
      "prepare ": 8246,
      ". However ": 8247,
      "have a seat ": 8248,
      "ple pie ": 8249,
      "of the world ": 8250,
      "of the city ": 8251,
      "of the Student ": 8252,
      "twen": 8253,
      "twelve ": 8254,
      "ourmet ": 8255,
      "guess": 8256,
      "guest ": 8257,
      "way . ']": 8258,
      "way to the ": 8259,
      "come out ": 8260,
      "come to the ": 8261,
      "helping ": 8262,
      "them . \"]": 8263,
      ". Say ": 8264,
      ". Sorry ": 8265,
      ". Sounds ": 8266,
      ". S . ": 8267,
      "how to get ": 8268,
      "cars ": 8269,
      "carf ": 8270,
      "cartri": 8271,
      "to the next ": 8272,
      "fail ": 8273,
      ". You have ": 8274,
      ". You must be ": 8275,
      "tion '\n ' ": 8276,
      "nother ": 8277,
      "nois": 8278,
      "cipl": 8279,
      "cities ": 8280,
      "cisco ": 8281,
      "gious ": 8282,
      "make up ": 8283,
      ". It is a ": 8284,
      ". It looks ": 8285,
      ". It is very ": 8286,
      ". It says ": 8287,
      ". It happens ": 8288,
      "gement ": 8289,
      "have to go ": 8290,
      "have to work ": 8291,
      "have to check ": 8292,
      "have to take it ": 8293,
      "someday ": 8294,
      "somebody ": 8295,
      "own a house ": 8296,
      "work overtime ": 8297,
      "duties ": 8298,
      "duty-": 8299,
      "dupli": 8300,
      "look great ": 8301,
      "cancell": 8302,
      "cancel": 8303,
      "ers of the ": 8304,
      "lux": 8305,
      "Chic": 8306,
      "has the ": 8307,
      "on the right ": 8308,
      "on the we": 8309,
      "on the back ": 8310,
      "on the same ": 8311,
      "on the left ": 8312,
      "on the internet ": 8313,
      "Can we ": 8314,
      "two more ": 8315,
      "two days ": 8316,
      "two kids ": 8317,
      "! '\n ' Well ": 8318,
      "! '\n ' So ": 8319,
      "by bus ": 8320,
      "people have ": 8321,
      "we'd better ": 8322,
      "we'd like to ": 8323,
      "weigh ": 8324,
      "weird ": 8325,
      "him with ": 8326,
      "bility ": 8327,
      "bigger ": 8328,
      ". Mi": 8329,
      ". But what ": 8330,
      ". But how ": 8331,
      ". But it's ": 8332,
      "going to drive ": 8333,
      "a lea": 8334,
      "are you from ": 8335,
      "are you having ": 8336,
      "are you looking for ": 8337,
      "are you hiding ": 8338,
      "internal ": 8339,
      "interior ": 8340,
      "new one ": 8341,
      "new clothes ": 8342,
      "when we ": 8343,
      "when they ": 8344,
      "when you are ": 8345,
      "when it comes ": 8346,
      "... I ": 8347,
      "cepans ": 8348,
      "I've had ": 8349,
      "I've got a ": 8350,
      "native ": 8351,
      "named ": 8352,
      "nasty ": 8353,
      "dern ": 8354,
      "estyle ": 8355,
      "privac": 8356,
      "solar ": 8357,
      ". What is the ": 8358,
      ". What did you ": 8359,
      ". What do you want to ": 8360,
      ". What did you do ": 8361,
      ". We don't ": 8362,
      ". We have a ": 8363,
      ". We look forward to ": 8364,
      "offee ": 8365,
      "offices ": 8366,
      "serving ": 8367,
      "at the beginning ": 8368,
      "need more ": 8369,
      "need you to ": 8370,
      "need anything else ": 8371,
      "singing ": 8372,
      "wake ": 8373,
      "washed ": 8374,
      "waste ": 8375,
      "water": 8376,
      "watched ": 8377,
      "trading ": 8378,
      "us to ": 8379,
      "tell us ": 8380,
      ". '\n ' What did you ": 8381,
      ". '\n ' What are the ": 8382,
      ". '\n ' What do you mean ": 8383,
      ". '\n ' What did you do ": 8384,
      "back to the ": 8385,
      "pair": 8386,
      "pairs ": 8387,
      "ms and ": 8388,
      "hardly ": 8389,
      ", please . ']": 8390,
      ". \" ' Yes ": 8391,
      "for you to ": 8392,
      "for you . ']": 8393,
      "friger": 8394,
      "could I ": 8395,
      "elle ": 8396,
      "for the offer ": 8397,
      "kinds ": 8398,
      ". I'm just ": 8399,
      ". I'm afraid ": 8400,
      "you are free ": 8401,
      "a bro": 8402,
      "a bank ": 8403,
      "a book ": 8404,
      "? '\n ' Yes . And ": 8405,
      "? '\n ' Yes . I was ": 8406,
      "brow": 8407,
      "bring the ": 8408,
      ", Mari": 8409,
      "for a week ": 8410,
      "for a minute ": 8411,
      "for a few days ": 8412,
      "ted the ": 8413,
      "need to learn ": 8414,
      "also be ": 8415,
      "will be there ": 8416,
      "will be back ": 8417,
      "will be ready ": 8418,
      ". It's been ": 8419,
      "cutting ": 8420,
      "last weekend ": 8421,
      "most people ": 8422,
      "most of our ": 8423,
      "try it ": 8424,
      "over from ": 8425,
      ". Last ": 8426,
      "something urgent ": 8427,
      "leaf ": 8428,
      "leather ": 8429,
      "marvel": 8430,
      ". '\n ' All ": 8431,
      ". '\n ' Ah , ": 8432,
      ". '\n ' Any ": 8433,
      "job stress ": 8434,
      "kie Ch": 8435,
      "than that ": 8436,
      "food is ": 8437,
      "food was ": 8438,
      "iss.": 8439,
      ". I'll give you ": 8440,
      "lly Mc": 8441,
      "find your ": 8442,
      "before your ": 8443,
      "before , but I ": 8444,
      "checks ": 8445,
      "! I was ": 8446,
      "! I ’ ll ": 8447,
      "! I ’ Ve ": 8448,
      ", the food ": 8449,
      "['I need to ": 8450,
      "['I hate ": 8451,
      "today ? ' ' ": 8452,
      "a lot about ": 8453,
      "anything about ": 8454,
      "starving ": 8455,
      "? ' \" He's ": 8456,
      ". And the ": 8457,
      "ready for ": 8458,
      "ready to go ": 8459,
      "appear": 8460,
      "down to ": 8461,
      "heading ": 8462,
      "ve-": 8463,
      "vement ": 8464,
      "vements ": 8465,
      "vehic": 8466,
      ". How long ": 8467,
      ". How old ": 8468,
      ". How may I help you ": 8469,
      ". How can I help you ": 8470,
      "creen ": 8471,
      "create ": 8472,
      "keep": 8473,
      "say the ": 8474,
      "used by ": 8475,
      "to be here ": 8476,
      "to be honest ": 8477,
      "everal ": 8478,
      "then . ']": 8479,
      "I'd like a ": 8480,
      "first class ": 8481,
      "first prize ": 8482,
      "and-": 8483,
      "in a company ": 8484,
      "in a minute ": 8485,
      "in a few ": 8486,
      "help you with that ": 8487,
      "still waiting ": 8488,
      "storage ": 8489,
      "channel ": 8490,
      "didn't even ": 8491,
      "call him ": 8492,
      "call the police ": 8493,
      "call transfer ": 8494,
      "essential ": 8495,
      "expected ": 8496,
      "you can do ": 8497,
      "you can find ": 8498,
      "corridor ": 8499,
      ". '\n ' You must ": 8500,
      "it is too ": 8501,
      "never saw ": 8502,
      "housing ": 8503,
      "numb": 8504,
      "a good day ": 8505,
      "a good thing ": 8506,
      "a good impression ": 8507,
      "? '\n ' Yes , of course ": 8508,
      "Oh yes ": 8509,
      "phones ": 8510,
      "This is the ": 8511,
      "again . \"\n \" ": 8512,
      "again later ": 8513,
      ", sir . ']": 8514,
      "always be ": 8515,
      ". They were ": 8516,
      "Chinese people ": 8517,
      "Chinese medicine ": 8518,
      "Please be ": 8519,
      "toma": 8520,
      ". '\n ' How do you ": 8521,
      ". '\n ' How are your ": 8522,
      "’ Ve got ": 8523,
      "talent ": 8524,
      "talks ": 8525,
      "afraid not ": 8526,
      ". He ’ s ": 8527,
      "because I ": 8528,
      "because of ": 8529,
      "because it is ": 8530,
      "kind of stuff ": 8531,
      "ses are ": 8532,
      ", we don't ": 8533,
      "tell me where ": 8534,
      "tell me something about your ": 8535,
      "pump ": 8536,
      "puzz": 8537,
      "mean , ": 8538,
      "name , please ": 8539,
      "check in ": 8540,
      "pay for ": 8541,
      "pay for it ": 8542,
      "pay more attention ": 8543,
      "English , ": 8544,
      "that's how ": 8545,
      ". Could I have ": 8546,
      ", so you ": 8547,
      ", so I have to ": 8548,
      "buy one ": 8549,
      "buy a b": 8550,
      "three years ": 8551,
      "three hours ": 8552,
      "who plays ": 8553,
      ". ' \" You're welcome . \"]": 8554,
      "ere's the ": 8555,
      "stations ": 8556,
      "? I know ": 8557,
      "? I have to ": 8558,
      "? I want to ": 8559,
      "watch it ": 8560,
      "keep your ": 8561,
      "number 13 ": 8562,
      "tomorrow night ": 8563,
      ". '\n ' Have ": 8564,
      "can I do ": 8565,
      "feel terrible ": 8566,
      "grow": 8567,
      "grow ": 8568,
[...]
